{
  "version": "1.0",
  "truncation": null,
  "padding": null,
  "added_tokens": [
    {
      "id": 0,
      "content": "<pad>",
      "single_word": false,
      "lstrip": false,
      "rstrip": false,
      "normalized": false,
      "special": true
    },
    {
      "id": 1,
      "content": "<|im_start|>",
      "single_word": false,
      "lstrip": false,
      "rstrip": false,
      "normalized": false,
      "special": true
    },
    {
      "id": 2,
      "content": "<|im_end|>",
      "single_word": false,
      "lstrip": false,
      "rstrip": false,
      "normalized": false,
      "special": true
    }
  ],
  "normalizer": null,
  "pre_tokenizer": {
    "type": "ByteLevel",
    "add_prefix_space": false,
    "trim_offsets": true,
    "use_regex": true
  },
  "post_processor": {
    "type": "ByteLevel",
    "add_prefix_space": true,
    "trim_offsets": false,
    "use_regex": true
  },
  "decoder": {
    "type": "ByteLevel",
    "add_prefix_space": true,
    "trim_offsets": true,
    "use_regex": true
  },
  "model": {
    "type": "BPE",
    "dropout": null,
    "unk_token": null,
    "continuing_subword_prefix": null,
    "end_of_word_suffix": null,
    "fuse_unk": false,
    "byte_fallback": false,
    "ignore_merges": false,
    "vocab": {
      "<pad>": 0,
      "<|im_start|>": 1,
      "<|im_end|>": 2,
      "!": 3,
      "\"": 4,
      "#": 5,
      "$": 6,
      "%": 7,
      "&": 8,
      "'": 9,
      "(": 10,
      ")": 11,
      "*": 12,
      "+": 13,
      ",": 14,
      "-": 15,
      ".": 16,
      "/": 17,
      "0": 18,
      "1": 19,
      "2": 20,
      "3": 21,
      "4": 22,
      "5": 23,
      "6": 24,
      "7": 25,
      "8": 26,
      "9": 27,
      ":": 28,
      ";": 29,
      "<": 30,
      "=": 31,
      ">": 32,
      "?": 33,
      "@": 34,
      "A": 35,
      "B": 36,
      "C": 37,
      "D": 38,
      "E": 39,
      "F": 40,
      "G": 41,
      "H": 42,
      "I": 43,
      "J": 44,
      "K": 45,
      "L": 46,
      "M": 47,
      "N": 48,
      "O": 49,
      "P": 50,
      "Q": 51,
      "R": 52,
      "S": 53,
      "T": 54,
      "U": 55,
      "V": 56,
      "W": 57,
      "X": 58,
      "Y": 59,
      "Z": 60,
      "_": 61,
      "a": 62,
      "b": 63,
      "c": 64,
      "d": 65,
      "e": 66,
      "f": 67,
      "g": 68,
      "h": 69,
      "i": 70,
      "j": 71,
      "k": 72,
      "l": 73,
      "m": 74,
      "n": 75,
      "o": 76,
      "p": 77,
      "q": 78,
      "r": 79,
      "s": 80,
      "t": 81,
      "u": 82,
      "v": 83,
      "w": 84,
      "x": 85,
      "y": 86,
      "z": 87,
      "|": 88,
      "~": 89,
      "¡": 90,
      "¢": 91,
      "£": 92,
      "¤": 93,
      "¥": 94,
      "¦": 95,
      "§": 96,
      "¨": 97,
      "©": 98,
      "ª": 99,
      "«": 100,
      "¬": 101,
      "®": 102,
      "¯": 103,
      "°": 104,
      "±": 105,
      "²": 106,
      "³": 107,
      "´": 108,
      "µ": 109,
      "¶": 110,
      "·": 111,
      "¸": 112,
      "¹": 113,
      "º": 114,
      "»": 115,
      "¼": 116,
      "½": 117,
      "¾": 118,
      "¿": 119,
      "Â": 120,
      "Ã": 121,
      "Ä": 122,
      "Å": 123,
      "É": 124,
      "Ë": 125,
      "Ì": 126,
      "â": 127,
      "ã": 128,
      "ä": 129,
      "å": 130,
      "æ": 131,
      "ç": 132,
      "è": 133,
      "é": 134,
      "ï": 135,
      "ð": 136,
      "Ċ": 137,
      "Ġ": 138,
      "Ģ": 139,
      "ģ": 140,
      "Ĥ": 141,
      "ĥ": 142,
      "Ħ": 143,
      "ħ": 144,
      "Ĩ": 145,
      "ĩ": 146,
      "Ī": 147,
      "ī": 148,
      "Ĭ": 149,
      "ĭ": 150,
      "Į": 151,
      "į": 152,
      "İ": 153,
      "ı": 154,
      "Ĳ": 155,
      "ĳ": 156,
      "Ĵ": 157,
      "ĵ": 158,
      "Ķ": 159,
      "ķ": 160,
      "ĸ": 161,
      "Ĺ": 162,
      "ĺ": 163,
      "Ļ": 164,
      "ļ": 165,
      "Ľ": 166,
      "ľ": 167,
      "Ŀ": 168,
      "ŀ": 169,
      "Ł": 170,
      "ł": 171,
      "Ń": 172,
      "im": 173,
      "<|": 174,
      "|>": 175,
      "st": 176,
      "sta": 177,
      "en": 178,
      "rt": 179,
      "end": 180,
      "start": 181,
      "er": 182,
      "si": 183,
      "in": 184,
      "as": 185,
      "us": 186,
      "nt": 187,
      "on": 188,
      "assi": 189,
      "user": 190,
      "stant": 191,
      "|><|": 192,
      "assistant": 193,
      "Ġa": 194,
      "ou": 195,
      "re": 196,
      ".<|": 197,
      "?<|": 198,
      "at": 199,
      "ï¼": 200,
      "Ġt": 201,
      "Ġm": 202,
      "ing": 203,
      "or": 204,
      "Ġy": 205,
      "Ġyou": 206,
      "Ġp": 207,
      "nd": 208,
      "Ġf": 209,
      "ar": 210,
      "ãĢ": 211,
      "Ġin": 212,
      "Ġd": 213,
      "Ġw": 214,
      "el": 215,
      "es": 216,
      "Ġc": 217,
      "ãĢĤ": 218,
      "al": 219,
      "ed": 220,
      "ch": 221,
      "Ġre": 222,
      "od": 223,
      "ãĢĤ<|": 224,
      "ti": 225,
      "an": 226,
      "ä½": 227,
      "ï¼Į": 228,
      "ï¼Ł": 229,
      "ï¼Ł<|": 230,
      "ä¸": 231,
      "Ġs": 232,
      "ear": 233,
      "ļĦ": 234,
      "çļĦ": 235,
      "Ġand": 236,
      "it": 237,
      "Wh": 238,
      "ff": 239,
      "ent": 240,
      "Ġb": 241,
      "Ġth": 242,
      "ra": 243,
      "æľ": 244,
      "ro": 245,
      "sion": 246,
      "'s": 247,
      "ä¹": 248,
      "earch": 249,
      "is": 250,
      "odel": 251,
      "ow": 252,
      "ati": 253,
      "Ġres": 254,
      "ä½ł": 255,
      "åĲ": 256,
      "Ġyour": 257,
      "iff": 258,
      "Ġon": 259,
      "What": 260,
      "ab": 261,
      "Ġmodel": 262,
      "usion": 263,
      "AI": 264,
      "iffusion": 265,
      "Ġresearch": 266,
      "Ġto": 267,
      "è¿": 268,
      "ve": 269,
      "Ġg": 270,
      "æĺ": 271,
      "le": 272,
      "æĺ¯": 273,
      "ĠC": 274,
      "ter": 275,
      "enc": 276,
      "Ġat": 277,
      "Ġfor": 278,
      "ĠI": 279,
      "ic": 280,
      "hi": 281,
      "ong": 282,
      "ĠP": 283,
      "ation": 284,
      "ly": 285,
      "Ġmodels": 286,
      "om": 287,
      "id": 288,
      "Ġn": 289,
      "Ġwor": 290,
      "Ġo": 291,
      "Ġl": 292,
      "ver": 293,
      "ä»": 294,
      "äº": 295,
      "et": 296,
      "ĠAI": 297,
      "am": 298,
      "åľ": 299,
      "Ġst": 300,
      "Ġe": 301,
      "å¤": 302,
      "æĸ": 303,
      "hD": 304,
      "20": 305,
      "ä¹Ī": 306,
      "ec": 307,
      "202": 308,
      "Ġh": 309,
      "åľ¨": 310,
      "HK": 311,
      "ĠM": 312,
      "UHK": 313,
      "Ġthe": 314,
      "tion": 315,
      "per": 316,
      "un": 317,
      "åŃ": 318,
      "ost": 319,
      "ĠD": 320,
      "ep": 321,
      "ol": 322,
      "oc": 323,
      "Ġdiffusion": 324,
      "åı": 325,
      "How": 326,
      "Ġ202": 327,
      "Lab": 328,
      "è®": 329,
      "Ġinter": 330,
      "æľī": 331,
      "ut": 332,
      "åħ": 333,
      "ld": 334,
      "ining": 335,
      "ĠPhD": 336,
      "MLab": 337,
      "åŃ¦": 338,
      "Ġmy": 339,
      "ä»Ģ": 340,
      "ä»Ģä¹Ī": 341,
      "å®": 342,
      "Ġis": 343,
      "Ġu": 344,
      "åĲĹ": 345,
      "raining": 346,
      "åį": 347,
      "Ġwork": 348,
      "Ġdo": 349,
      "out": 350,
      "æĪ": 351,
      "Ġpa": 352,
      "ur": 353,
      "å¤§": 354,
      "âĢ": 355,
      "âĢĶ": 356,
      "ith": 357,
      "Ķç": 358,
      "ce": 359,
      "ty": 360,
      "çł": 361,
      "ency": 362,
      "Hong": 363,
      "Ġwith": 364,
      "æĢ": 365,
      "åĴ": 366,
      "Ġcom": 367,
      "ot": 368,
      "nder": 369,
      "ame": 370,
      "åĴĮ": 371,
      "¡å": 372,
      "æĸĩ": 373,
      "ll": 374,
      "ĠN": 375,
      "iver": 376,
      "rad": 377,
      "ust": 378,
      "hip": 379,
      "çłĶç": 380,
      "©¶": 381,
      "çłĶç©¶": 382,
      "iversi": 383,
      "Ġpaper": 384,
      "eng": 385,
      "Ġcon": 386,
      "gh": 387,
      "eep": 388,
      "training": 389,
      "Ġintern": 390,
      "æ¨": 391,
      "ener": 392,
      "iversity": 393,
      "ç»": 394,
      "Ġex": 395,
      "Ġab": 396,
      "rom": 397,
      "ship": 398,
      "Ġv": 399,
      "ĠCUHK": 400,
      "Fu": 401,
      "sist": 402,
      "ŀĭ": 403,
      "Ġgener": 404,
      "æ¨¡å": 405,
      "Ġunder": 406,
      "æ¨¡åŀĭ": 407,
      "ad": 408,
      "ĠL": 409,
      "Ġabout": 410,
      "sistency": 411,
      "ind": 412,
      "Ġme": 413,
      "ere": 414,
      "Yun": 415,
      "ment": 416,
      "Yes": 417,
      "ĠU": 418,
      "Ġof": 419,
      "ĥ½": 420,
      "ĠW": 421,
      "ang": 422,
      "ãĢģ": 423,
      "ĠDiffusion": 424,
      "Ġim": 425,
      "tic": 426,
      "ct": 427,
      "å®ŀ": 428,
      "Ġpost": 429,
      "æ±": 430,
      "ĠUn": 431,
      "ĠUniversity": 432,
      "ore": 433,
      "å·": 434,
      "ate": 435,
      "ä¼": 436,
      "ge": 437,
      "sh": 438,
      "ĠHong": 439,
      "ĠMMLab": 440,
      "ĠB": 441,
      "ry": 442,
      "è¿Ĳ": 443,
      "Ġname": 444,
      "ance": 445,
      "hu": 446,
      "ç§": 447,
      "sheng": 448,
      "ç¦": 449,
      "hihu": 450,
      "Zhihu": 451,
      "Ġpapers": 452,
      "ity": 453,
      "ç¦ı": 454,
      "Ġcomp": 455,
      "pt": 456,
      "Ġpro": 457,
      "Ġinternship": 458,
      "ĠT": 459,
      "æī": 460,
      "Go": 461,
      "æ±ª": 462,
      "ul": 463,
      "ri": 464,
      "çĶ": 465,
      "ĠLi": 466,
      "em": 467,
      "ĠR": 468,
      "å¯": 469,
      "æķ": 470,
      "åģ": 471,
      "åĪ": 472,
      "Mind": 473,
      "ä¹ł": 474,
      "æĪĳ": 475,
      "eepMind": 476,
      "grad": 477,
      "ustry": 478,
      "åĵ": 479,
      "ä½łçļĦ": 480,
      "ocus": 481,
      "Ġare": 482,
      "ç¦ıè¿Ĳ": 483,
      "åģļ": 484,
      "ub": 485,
      "ud": 486,
      "ied": 487,
      "å·¥": 488,
      "è®º": 489,
      "pp": 490,
      "Ġag": 491,
      "Ġimp": 492,
      "Ġworld": 493,
      "CUHK": 494,
      "ence": 495,
      "è¯": 496,
      "Ġor": 497,
      "jing": 498,
      "ally": 499,
      "å¾": 500,
      "ç§ĳ": 501,
      "Ġac": 502,
      "ĠWang": 503,
      "yt": 504,
      "anjing": 505,
      "ä½ľ": 506,
      "å¤§åŃ¦": 507,
      "CL": 508,
      "CLR": 509,
      "Ġbe": 510,
      "æľ¬": 511,
      "è®ºæĸĩ": 512,
      "hin": 513,
      "Ġad": 514,
      "Do": 515,
      "ĠZhihu": 516,
      "ell": 517,
      "ew": 518,
      "low": 519,
      "æł": 520,
      "Ġha": 521,
      "ubl": 522,
      "ĠS": 523,
      "our": 524,
      "ĠDeepMind": 525,
      "ative": 526,
      "ide": 527,
      "ä¸ļ": 528,
      "Ġind": 529,
      "Ġbut": 530,
      "Ġstud": 531,
      "æľ¬ç§ĳ": 532,
      "Ġundergrad": 533,
      "tif": 534,
      "æ±ªç¦ıè¿Ĳ": 535,
      "qu": 536,
      "äºĨ": 537,
      "ish": 538,
      "å®ŀä¹ł": 539,
      "çķ": 540,
      "onsistency": 541,
      "æĿ": 542,
      "Ġj": 543,
      "est": 544,
      "ers": 545,
      "ese": 546,
      "'m": 547,
      "og": 548,
      "ts": 549,
      "vi": 550,
      "Ġgo": 551,
      "è§": 552,
      "rit": 553,
      "è¦": 554,
      "ks": 555,
      "è¦ģ": 556,
      "Ġ(": 557,
      "ä¼ļ": 558,
      "çĶŁ": 559,
      "åĵª": 560,
      "çĽ": 561,
      "Ġindustry": 562,
      "Ġfocus": 563,
      "è¿ĩ": 564,
      "MMLab": 565,
      "entic": 566,
      "æľĢ": 567,
      "Ġte": 568,
      "Ġadv": 569,
      "å¥": 570,
      "rou": 571,
      "Ġma": 572,
      "vest": 573,
      "ä¸Ń": 574,
      "Ġpubl": 575,
      "Dance": 576,
      "eDance": 577,
      "èĤ": 578,
      "yteDance": 579,
      "Ġfrom": 580,
      "li": 581,
      "Ġpre": 582,
      "åįĹ": 583,
      "åĨ": 584,
      "iz": 585,
      "ĠHongsheng": 586,
      "PR": 587,
      "VPR": 588,
      "å¥½": 589,
      "å¯¹": 590,
      "ning": 591,
      "ĠFu": 592,
      "æĸ¹": 593,
      "å·¥ä½ľ": 594,
      "tified": 595,
      "Ġinvest": 596,
      "eur": 597,
      "æĢĿ": 598,
      "hinese": 599,
      "Ġco": 600,
      "ogle": 601,
      "Google": 602,
      "age": 603,
      "th": 604,
      "Ġwh": 605,
      "å¸": 606,
      "æķ£": 607,
      "Ġinternships": 608,
      "åĬ": 609,
      "Ġgenerative": 610,
      "ies": 611,
      "IP": 612,
      "IPS": 613,
      "ectified": 614,
      "æī©": 615,
      "king": 616,
      "Ġwrit": 617,
      "Ġstr": 618,
      "çķĮ": 619,
      "æī©æķ£": 620,
      "eurIPS": 621,
      "Ġagentic": 622,
      "ased": 623,
      "otion": 624,
      "è¿ĺ": 625,
      "å¹": 626,
      "æĢİ": 627,
      "èĤ¡": 628,
      "éĥ½": 629,
      "æĬ": 630,
      "Ġdid": 631,
      "åħ³": 632,
      "ant": 633,
      "ä¸Ģ": 634,
      "ä¸į": 635,
      "å¾Ī": 636,
      "Are": 637,
      "ay": 638,
      "iv": 639,
      "èĥ½": 640,
      "Ġstoc": 641,
      "Ġlab": 642,
      "fer": 643,
      "JU": 644,
      "ey": 645,
      "çľ": 646,
      "äº¬": 647,
      "ure": 648,
      "ä¸ª": 649,
      "ng": 650,
      "ny": 651,
      "os": 652,
      "all": 653,
      "Ġsy": 654,
      "åįĹäº¬": 655,
      "if": 656,
      "åįļ": 657,
      "ort": 658,
      "èµ": 659,
      "åĲİ": 660,
      "isor": 661,
      "ely": 662,
      "RA": 663,
      "Ġgeneration": 664,
      "ire": 665,
      "GG": 666,
      "IGG": 667,
      "PH": 668,
      "ĠByteDance": 669,
      "RAPH": 670,
      "IGGRAPH": 671,
      "æĺ¯ä»Ģä¹Ī": 672,
      "åıĳ": 673,
      "Ġ2024": 674,
      "ob": 675,
      "Ġ2026": 676,
      "PO": 677,
      "å°": 678,
      "Ġstudent": 679,
      "ac": 680,
      "éĩ": 681,
      "è¿Ļ": 682,
      "ĠConsistency": 683,
      "æĤ": 684,
      "ect": 685,
      "gn": 686,
      "åįĹäº¬å¤§åŃ¦": 687,
      "Ġhave": 688,
      "åĽ": 689,
      "pl": 690,
      "Ġapp": 691,
      "æĹ": 692,
      "Did": 693,
      "ication": 694,
      "Ġthat": 695,
      "stem": 696,
      "Ġsp": 697,
      "encent": 698,
      "EV": 699,
      "EVE": 700,
      "åĮ": 701,
      "rompt": 702,
      "æĢİä¹Ī": 703,
      "Ġcont": 704,
      "æĪĲ": 705,
      "æ³": 706,
      "ard": 707,
      "é¢": 708,
      "Ġit": 709,
      "æĤ¥": 710,
      "Ġsta": 711,
      "ir": 712,
      "Ġsystem": 713,
      "Ġsh": 714,
      "Ġlear": 715,
      "æĢĿæĤ¥": 716,
      "oth": 717,
      "Ġch": 718,
      "NPO": 719,
      "æī©æķ£æ¨¡åŀĭ": 720,
      "ĠK": 721,
      "Ġwas": 722,
      "åĲĳ": 723,
      "Ġbet": 724,
      "cal": 725,
      "ill": 726,
      "Ġpl": 727,
      "are": 728,
      "act": 729,
      "å¼": 730,
      "Ġsystems": 731,
      "PhD": 732,
      "ine": 733,
      "çľĭ": 734,
      "ach": 735,
      "ici": 736,
      "Ġconsistency": 737,
      "ĠChinese": 738,
      "any": 739,
      "ptim": 740,
      "ke": 741,
      "ä¸»": 742,
      "op": 743,
      "Ġadvisor": 744,
      "Ġen": 745,
      "åĲį": 746,
      "Ġtech": 747,
      "ä½łåľ¨": 748,
      "Ġ2025": 749,
      "ĠKong": 750,
      "uc": 751,
      "ĠNanjing": 752,
      "å¤ļ": 753,
      "Ġexper": 754,
      "il": 755,
      "ptimiz": 756,
      "ble": 757,
      "ffici": 758,
      "ght": 759,
      "æİ": 760,
      "è¡": 761,
      "eth": 762,
      "æĸ¹åĲĳ": 763,
      "ĠICLR": 764,
      "åİ": 765,
      "èĢ": 766,
      "éĹ": 767,
      "!<|": 768,
      "hased": 769,
      "rac": 770,
      "çİ": 771,
      "Ġtop": 772,
      "ĠTencent": 773,
      "ĠA": 774,
      "Ġreal": 775,
      "view": 776,
      "è¯»": 777,
      "Ġoptimiz": 778,
      "éĢ": 779,
      "ICLR": 780,
      "åĨĻ": 781,
      "ee": 782,
      "Nanjing": 783,
      "å£": 784,
      "Ġmore": 785,
      "ality": 786,
      "ĠNJU": 787,
      "æĹ¶": 788,
      "ark": 789,
      "Ġpublish": 790,
      "æĥ": 791,
      "ome": 792,
      "Ġvi": 793,
      "åĮĸ": 794,
      "ĠTh": 795,
      "Ġrec": 796,
      "Ġimpro": 797,
      "Ġqu": 798,
      "Any": 799,
      "Ġinterest": 800,
      "ideo": 801,
      "æĬķ": 802,
      "Ġdire": 803,
      "æĻ": 804,
      "ç¥": 805,
      "lab": 806,
      "æ¸": 807,
      "ä¸»è¦ģ": 808,
      "Ġun": 809,
      "arket": 810,
      "res": 811,
      "Ġk": 812,
      "Ġint": 813,
      "ç¥¨": 814,
      "èĤ¡ç¥¨": 815,
      "Ġde": 816,
      "èµĦ": 817,
      "ollab": 818,
      "å£«": 819,
      "Ġas": 820,
      "åħ¬": 821,
      "ast": 822,
      "tions": 823,
      "ollabor": 824,
      "able": 825,
      "Ġtim": 826,
      "åįļå£«": 827,
      "æ¯": 828,
      "Ġeffici": 829,
      "Ġfu": 830,
      "Hongsheng": 831,
      "Ġinvesting": 832,
      "for": 833,
      "Ġmarket": 834,
      "Ġflow": 835,
      "ess": 836,
      "åı¸": 837,
      "åħ¬åı¸": 838,
      "Ġgood": 839,
      "Ġro": 840,
      "Ġ2027": 841,
      "å¹´": 842,
      "ĠCVPR": 843,
      "äºĽ": 844,
      "wor": 845,
      "tive": 846,
      "Sol": 847,
      "ience": 848,
      "Ġmost": 849,
      "Tell": 850,
      "æĥ³": 851,
      "æ²": 852,
      "çĽ¸": 853,
      "Ġup": 854,
      "ä½ĵ": 855,
      "Ġlearning": 856,
      "æĿİ": 857,
      "Ġstocks": 858,
      "Your": 859,
      "Good": 860,
      "æ¸¯": 861,
      "ap": 862,
      "é¡": 863,
      "Ġby": 864,
      "åŃĹ": 865,
      "rough": 866,
      "rod": 867,
      "sing": 868,
      "ĠE": 869,
      "çĶŁæĪĲ": 870,
      "RL": 871,
      "å¿": 872,
      "Ġimpact": 873,
      "Rectified": 874,
      "Ġjob": 875,
      "æł·": 876,
      "çŁ": 877,
      "Ġali": 878,
      "Ġmat": 879,
      "ould": 880,
      "ĠModel": 881,
      "fore": 882,
      "ous": 883,
      "èĩ": 884,
      "ĠREVE": 885,
      "åº": 886,
      "è®Ń": 887,
      "ç»ĥ": 888,
      "Ġscal": 889,
      "è®Ńç»ĥ": 890,
      "ound": 891,
      "Ġsol": 892,
      "ethod": 893,
      "å°±": 894,
      "ving": 895,
      "romptRL": 896,
      "'t": 897,
      "Ġalign": 898,
      "æĿ¥": 899,
      "Ġmethod": 900,
      "ä¼ĺ": 901,
      "ä¸Ńæĸĩ": 902,
      "Solver": 903,
      "tical": 904,
      "ui": 905,
      "ents": 906,
      "çĤ": 907,
      "Ġle": 908,
      "eed": 909,
      "ĠNeurIPS": 910,
      "å¸Ī": 911,
      "Ġcollabor": 912,
      "Ġtraining": 913,
      "Ġquality": 914,
      "åı«": 915,
      "ms": 916,
      "¯ĩ": 917,
      "ç¯ĩ": 918,
      "ag": 919,
      "Ġthere": 920,
      "çŁ¥": 921,
      "Ġbefore": 922,
      "Ġmany": 923,
      "adem": 924,
      "ĠSIGGRAPH": 925,
      "Ġacc": 926,
      "ĠPre": 927,
      "ç»ı": 928,
      "Ġstrong": 929,
      "anies": 930,
      "Ġoptimization": 931,
      "åĩ": 932,
      "Ġproble": 933,
      "ference": 934,
      "Ġbetter": 935,
      "Ġide": 936,
      "les": 937,
      "Xiv": 938,
      "ain": 939,
      "ä½łæľ¬ç§ĳ": 940,
      "æĬķèµĦ": 941,
      "reat": 942,
      "ä¸ļçķĮ": 943,
      "CVPR": 944,
      "ia": 945,
      "Ġcompanies": 946,
      "ich": 947,
      "ä¸º": 948,
      "Not": 949,
      "uate": 950,
      "ated": 951,
      "Ġnow": 952,
      "uild": 953,
      "irst": 954,
      "ex": 955,
      "ä¹İ": 956,
      "æĶ": 957,
      "fter": 958,
      "ä½Ĩ": 959,
      "Which": 960,
      "ĸçķĮ": 961,
      "ä¸ĸçķĮ": 962,
      "Ġthrough": 963,
      "NeurIPS": 964,
      "Ġri": 965,
      "Ġdoes": 966,
      "Ġwrite": 967,
      "çĽ¸åħ³": 968,
      "æ³ķ": 969,
      "Ġtechn": 970,
      "Ġdep": 971,
      "Ġwhere": 972,
      "åĲİè®Ńç»ĥ": 973,
      "Th": 974,
      "çŁ¥ä¹İ": 975,
      "tim": 976,
      "ig": 977,
      "arg": 978,
      "è¿Ľ": 979,
      "mage": 980,
      "æľŁ": 981,
      "åĪ°": 982,
      "Ġstart": 983,
      "å¯¼": 984,
      "åįĩ": 985,
      "Ġgrad": 986,
      "Ġout": 987,
      "Ġtr": 988,
      "éª": 989,
      "uring": 990,
      "ä¸Ĭ": 991,
      "ack": 992,
      "Ġexperience": 993,
      "Where": 994,
      "Ġoth": 995,
      "rib": 996,
      "Ġall": 997,
      "çİ°": 998,
      "éªĮ": 999,
      "oundation": 1000,
      "Ġprac": 1001,
      "Ġacadem": 1002,
      "çŃ": 1003,
      "Ġcl": 1004,
      "æĽ": 1005,
      "Ġafter": 1006,
      "ory": 1007,
      "Ġnot": 1008,
      "Ġduring": 1009,
      "Ġli": 1010,
      "Ġlong": 1011,
      "ĠRectified": 1012,
      "ä¸ĸçķĮæ¨¡åŀĭ": 1013,
      "åŁ": 1014,
      "ough": 1015,
      "Ġvision": 1016,
      "arget": 1017,
      "åĳ": 1018,
      "æĦ": 1019,
      "Ġvideo": 1020,
      "Ġplan": 1021,
      "Ġwriting": 1022,
      "æĽ´": 1023,
      "Ġthin": 1024,
      "oy": 1025,
      "Ġcomm": 1026,
      "æĺ¯æĪĳ": 1027,
      "Hey": 1028,
      "gre": 1029,
      "åī": 1030,
      "ĠGoogle": 1031,
      "Ġdirec": 1032,
      "ting": 1033,
      "Ġta": 1034,
      "ications": 1035,
      "ĠF": 1036,
      "Ġmain": 1037,
      "Ġan": 1038,
      "Ġworking": 1039,
      "éĩį": 1040,
      "sid": 1041,
      "ateg": 1042,
      "ĠPreview": 1043,
      "åĵªä¸ª": 1044,
      "Post": 1045,
      "enu": 1046,
      "çĽ®": 1047,
      "ĠIt": 1048,
      "æ²¡": 1049,
      "Ġfoundation": 1050,
      "æĺ¯çļĦ": 1051,
      "åīį": 1052,
      "Diffusion": 1053,
      "Ġsee": 1054,
      "Ġstay": 1055,
      "Ġefficiency": 1056,
      "ful": 1057,
      "Ġfast": 1058,
      "æł¡": 1059,
      "Ġexp": 1060,
      "St": 1061,
      "Ġmethods": 1062,
      "è¡¨": 1063,
      "Ġstrateg": 1064,
      "urr": 1065,
      "Ġfirst": 1066,
      "Ġprog": 1067,
      "æµ": 1068,
      "ä¼ĺåĮĸ": 1069,
      "elp": 1070,
      "SIGGRAPH": 1071,
      "Ġal": 1072,
      "ple": 1073,
      "æĭ": 1074,
      "esearch": 1075,
      "¸¿": 1076,
      "è¶": 1077,
      "é¸¿": 1078,
      "æĿİé¸¿": 1079,
      "æĿİé¸¿åįĩ": 1080,
      "ea": 1081,
      "åĪĨ": 1082,
      "è´": 1083,
      "æ¯ķ": 1084,
      "èģ": 1085,
      "æ¯ķä¸ļ": 1086,
      "ical": 1087,
      "flow": 1088,
      "up": 1089,
      "è·": 1090,
      "Is": 1091,
      "Ġmo": 1092,
      "world": 1093,
      "Ġsome": 1094,
      "Why": 1095,
      "èĩª": 1096,
      "é¡¶": 1097,
      "vel": 1098,
      "2027": 1099,
      "Ġlabs": 1100,
      "urrent": 1101,
      "ç«": 1102,
      "als": 1103,
      "ĠMotion": 1104,
      "roduc": 1105,
      "ution": 1106,
      "ific": 1107,
      "ext": 1108,
      "No": 1109,
      "çļĦçłĶç©¶": 1110,
      "çĶ¨": 1111,
      "å¯¼å¸Ī": 1112,
      "Ġthan": 1113,
      "Ġyear": 1114,
      "ĠWhat": 1115,
      "ations": 1116,
      "Ġstock": 1117,
      "æľ¯": 1118,
      "æ¸¯ä¸Ńæĸĩ": 1119,
      "),": 1120,
      "ility": 1121,
      "çİ°åľ¨": 1122,
      "stand": 1123,
      "åı¯": 1124,
      "round": 1125,
      "ä½łæĺ¯": 1126,
      "Ġexc": 1127,
      "pen": 1128,
      "Ġboth": 1129,
      "ily": 1130,
      "æĮ": 1131,
      "Ġwant": 1132,
      "Ġproj": 1133,
      "Ġmatter": 1134,
      "Ġhelp": 1135,
      "Ġappl": 1136,
      "Ġpublished": 1137,
      "and": 1138,
      "hing": 1139,
      "ves": 1140,
      "Ġar": 1141,
      "Ġjust": 1142,
      "Ġment": 1143,
      "äºİ": 1144,
      "Ġvenu": 1145,
      "Ġtime": 1146,
      "Motion": 1147,
      "éĹ´": 1148,
      "ss": 1149,
      "èĬ": 1150,
      "Ġimprove": 1151,
      "um": 1152,
      "Ġcontro": 1153,
      "Ġproblems": 1154,
      "sis": 1155,
      "ice": 1156,
      "ron": 1157,
      "å¾Ĺ": 1158,
      "enti": 1159,
      "Ġcare": 1160,
      "isc": 1161,
      "ments": 1162,
      "æµģ": 1163,
      "åŃ¦ä¹ł": 1164,
      "Ġexpl": 1165,
      "Ġus": 1166,
      "Ġtarget": 1167,
      "You": 1168,
      "Ġlike": 1169,
      "ern": 1170,
      "oo": 1171,
      "æľīä»Ģä¹Ī": 1172,
      "Ġuniversity": 1173,
      "çļĦå·¥ä½ľ": 1174,
      "Ġso": 1175,
      "Ġspec": 1176,
      "æĻº": 1177,
      "è°": 1178,
      "ics": 1179,
      "æĻºèĥ½": 1180,
      "çº": 1181,
      "Ġdirection": 1182,
      "é¦": 1183,
      "ĠPhased": 1184,
      "Ġmul": 1185,
      "ors": 1186,
      "Ġscale": 1187,
      "Ġideas": 1188,
      "term": 1189,
      "åķ": 1190,
      "ç¨": 1191,
      "ä¹Ł": 1192,
      "åıĳè¡¨": 1193,
      "Ġpractical": 1194,
      "iffer": 1195,
      "Ġfund": 1196,
      "Ġpo": 1197,
      "Ġdisc": 1198,
      "æĸ°": 1199,
      "åĸ": 1200,
      "'re": 1201,
      "ĠG": 1202,
      "Ġone": 1203,
      "unity": 1204,
      "æ³¨": 1205,
      "éĻ": 1206,
      "ĠBut": 1207,
      "uilding": 1208,
      "ram": 1209,
      "ç®": 1210,
      "éĢī": 1211,
      "èĬĤ": 1212,
      "Ġmean": 1213,
      "è§Ĩ": 1214,
      "Ġstrategy": 1215,
      "¦Ĥ": 1216,
      "Consistency": 1217,
      "Ġr": 1218,
      "Ġwell": 1219,
      "è¶£": 1220,
      "Ġnext": 1221,
      "one": 1222,
      "ä»¥": 1223,
      "Ġbeen": 1224,
      "æ¬": 1225,
      "alu": 1226,
      "form": 1227,
      "se": 1228,
      "ndustry": 1229,
      "Ġinf": 1230,
      "own": 1231,
      "ament": 1232,
      "ary": 1233,
      "Ġsam": 1234,
      "iti": 1235,
      "Ġroles": 1236,
      "åħ´": 1237,
      "æĻºèĥ½ä½ĵ": 1238,
      "Ġover": 1239,
      "ted": 1240,
      "uct": 1241,
      "iction": 1242,
      "åĬĽ": 1243,
      "Phased": 1244,
      "ave": 1245,
      "é¦Ļ": 1246,
      "ial": 1247,
      "ven": 1248,
      "çĲ": 1249,
      "Ġem": 1250,
      "ects": 1251,
      "å¼º": 1252,
      "ĠMy": 1253,
      "Ġunderstand": 1254,
      "ä¿": 1255,
      "ross": 1256,
      "ating": 1257,
      "åĪ«": 1258,
      "hina": 1259,
      "Chinese": 1260,
      "ä¸ĭ": 1261,
      "çĤĴ": 1262,
      "çĲĨ": 1263,
      "ead": 1264,
      "è¿ĳ": 1265,
      "Wor": 1266,
      "Ġsch": 1267,
      "Ġfundament": 1268,
      "ĠæĢĿæĤ¥": 1269,
      "ĠImage": 1270,
      "ĠPromptRL": 1271,
      "Ġinto": 1272,
      "rong": 1273,
      "uch": 1274,
      "åħ´è¶£": 1275,
      "REVE": 1276,
      "éĶ": 1277,
      "Ġcan": 1278,
      "Ġear": 1279,
      "urn": 1280,
      "Ġalignment": 1281,
      "Ġlead": 1282,
      "side": 1283,
      "iqu": 1284,
      "ĠChina": 1285,
      "Will": 1286,
      "Ġtoo": 1287,
      "éĩįè¦ģ": 1288,
      ").<|": 1289,
      "viction": 1290,
      "Ġmuch": 1291,
      "Ġteam": 1292,
      "éĹ®": 1293,
      "Ġcod": 1294,
      "æĢ§": 1295,
      "Ġcontrib": 1296,
      "éĺ": 1297,
      "Ġother": 1298,
      "Ġvenues": 1299,
      "åĢ": 1300,
      "Ġpart": 1301,
      "Ġfocused": 1302,
      "loy": 1303,
      "anc": 1304,
      "äºĭ": 1305,
      "å®ŀä¹łè¿ĩ": 1306,
      "å¦Ĥ": 1307,
      "Ġdiffer": 1308,
      "Ġdeep": 1309,
      "Ġbal": 1310,
      "Ġagents": 1311,
      "Ġdeploy": 1312,
      "Ġprompt": 1313,
      "DeepMind": 1314,
      "äºº": 1315,
      "ose": 1316,
      "ĠConsistencySolver": 1317,
      "wo": 1318,
      "çī": 1319,
      "ings": 1320,
      "Ġpe": 1321,
      "eti": 1322,
      "éķ": 1323,
      "ĠH": 1324,
      "ends": 1325,
      "åİĨ": 1326,
      "éķ¿": 1327,
      "Ġsu": 1328,
      "Ġgiv": 1329,
      "æĸĩç«": 1330,
      "æľĢè¿ĳ": 1331,
      "æĸĩç«ł": 1332,
      "ually": 1333,
      "Ġinst": 1334,
      "ĠarXiv": 1335,
      "jor": 1336,
      "åĲĪ": 1337,
      "ndergrad": 1338,
      "è¿ĺæľī": 1339,
      "Ġposi": 1340,
      "art": 1341,
      "å½": 1342,
      "Ġfull": 1343,
      "Ġeng": 1344,
      "Ġthough": 1345,
      "Ġcomple": 1346,
      "viron": 1347,
      "æ¬¢": 1348,
      "Ġhand": 1349,
      "Ġundergraduate": 1350,
      "Ġfaster": 1351,
      "Ġhow": 1352,
      "ç»Ń": 1353,
      "PromptRL": 1354,
      "Ġany": 1355,
      "åĽ½": 1356,
      "Ġenviron": 1357,
      "ä¸ºä»Ģä¹Ī": 1358,
      "ConsistencySolver": 1359,
      "ool": 1360,
      "Ġmotion": 1361,
      "åŃ¦æł¡": 1362,
      "Ġacross": 1363,
      "è§£": 1364,
      "Ġback": 1365,
      "AIçłĶç©¶": 1366,
      "Ġresearchers": 1367,
      "ences": 1368,
      "gree": 1369,
      "Ġdiscus": 1370,
      "æ·": 1371,
      "Ġthinking": 1372,
      "pport": 1373,
      "It": 1374,
      "NJU": 1375,
      "æľº": 1376,
      "æ·±": 1377,
      "åİ»": 1378,
      "Ġæ±ªç¦ıè¿Ĳ": 1379,
      "Ġwhat": 1380,
      "èĢĥ": 1381,
      "åĸľ": 1382,
      "pec": 1383,
      "Ġnew": 1384,
      "Ġmajor": 1385,
      "ays": 1386,
      "Ġdegree": 1387,
      "All": 1388,
      "kes": 1389,
      "ick": 1390,
      "æŀ": 1391,
      "åĲįåŃĹ": 1392,
      "è¯»åįļ": 1393,
      "research": 1394,
      "åŃĹèĬĤ": 1395,
      "Ġright": 1396,
      "æŃ": 1397,
      "Ġinsi": 1398,
      "Ġyears": 1399,
      "Ġbalance": 1400,
      "«ĺ": 1401,
      "é«ĺ": 1402,
      "Ġdoing": 1403,
      "ä¸Ńå¤§": 1404,
      "åĸľæ¬¢": 1405,
      "Ġcurrent": 1406,
      "è§ī": 1407,
      "Int": 1408,
      "æľª": 1409,
      "Ġconn": 1410,
      "æķĻ": 1411,
      "é¢ĺ": 1412,
      "ten": 1413,
      "ä½į": 1414,
      "Ġmentor": 1415,
      "Ġschool": 1416,
      "gor": 1417,
      "Ġhi": 1418,
      "tiv": 1419,
      "ghts": 1420,
      "Ġappro": 1421,
      "ĠThat": 1422,
      "Ġwhi": 1423,
      "æ¨¡åŀĭçļĦ": 1424,
      "è¯´": 1425,
      "yp": 1426,
      "Ġoff": 1427,
      "Ġdirect": 1428,
      "ç¨ĭ": 1429,
      "çĤĴèĤ¡": 1430,
      "Ġsi": 1431,
      "ç»ıåİĨ": 1432,
      "Ġcareer": 1433,
      "éĥ½æĺ¯": 1434,
      "ress": 1435,
      "Ġsolid": 1436,
      "çĤ¹": 1437,
      "lish": 1438,
      "ĠGood": 1439,
      "Ġcompany": 1440,
      "ything": 1441,
      "Ġexcit": 1442,
      "Ġinvestment": 1443,
      "Ġkeep": 1444,
      "Ġtake": 1445,
      "Ġapproach": 1446,
      "åģļä»Ģä¹Ī": 1447,
      "è¿ĻäºĽ": 1448,
      "ĠAl": 1449,
      "put": 1450,
      "elf": 1451,
      "Ever": 1452,
      "Ġgoing": 1453,
      "Ġtra": 1454,
      "pling": 1455,
      "ByteDance": 1456,
      "Ġno": 1457,
      "Ġimage": 1458,
      "å®ŀéªĮ": 1459,
      "Ġconviction": 1460,
      "å¹³": 1461,
      "Ġexperim": 1462,
      "Ġcommunity": 1463,
      "Ġif": 1464,
      "edia": 1465,
      "Research": 1466,
      "çļĦè®ºæĸĩ": 1467,
      "é¢ĳ": 1468,
      "Ġtechnical": 1469,
      "çŃĸ": 1470,
      "æ²¡æľī": 1471,
      "Ġprojects": 1472,
      "Ġtargeting": 1473,
      "ollow": 1474,
      "Ġstudy": 1475,
      "åº¦": 1476,
      "Ġhandle": 1477,
      "æľªæĿ¥": 1478,
      "ie": 1479,
      "to": 1480,
      "arly": 1481,
      "ĠRL": 1482,
      "Ġsampling": 1483,
      "infor": 1484,
      "ĠSt": 1485,
      "Ġgradu": 1486,
      "'ve": 1487,
      "diffusion": 1488,
      "åĬ¨": 1489,
      "ç¡": 1490,
      "å®¶": 1491,
      "å¼Ģ": 1492,
      "Ġaccep": 1493,
      "etitive": 1494,
      "Ġgiven": 1495,
      "Ġinsights": 1496,
      "Ġaut": 1497,
      "Ġever": 1498,
      "Ġprep": 1499,
      "eline": 1500,
      "obb": 1501,
      "Ġcontrol": 1502,
      "è°ģ": 1503,
      "Ġdeployment": 1504,
      "ject": 1505,
      "Ġpers": 1506,
      "edge": 1507,
      "æī¾": 1508,
      "å°±æĺ¯": 1509,
      "Ġbig": 1510,
      "Ġefficient": 1511,
      "æĦŁ": 1512,
      "¾è®": 1513,
      "ates": 1514,
      "åħ·": 1515,
      "Ġprefer": 1516,
      "Undergrad": 1517,
      "Ġwill": 1518,
      "Who": 1519,
      "Ġthen": 1520,
      "åľ¨åĵª": 1521,
      "åħ¨": 1522,
      "å·¥ä¸ļçķĮ": 1523,
      "Ġrole": 1524,
      "Ġacademia": 1525,
      "Just": 1526,
      "so": 1527,
      "ath": 1528,
      "Ġper": 1529,
      "cement": 1530,
      "é¢Ĩ": 1531,
      "Ġlearn": 1532,
      "å±": 1533,
      "Ġhobb": 1534,
      "çī¹": 1535,
      "bs": 1536,
      "ĠO": 1537,
      "arXiv": 1538,
      "ä½ķ": 1539,
      "åĩł": 1540,
      "Ġuse": 1541,
      "Ġspecific": 1542,
      "Ġearly": 1543,
      "æ´": 1544,
      "ä¸¤": 1545,
      "Ġform": 1546,
      "Ġlat": 1547,
      "åĬł": 1548,
      "ces": 1549,
      "Ġsom": 1550,
      "ential": 1551,
      "è§Ĩé¢ĳ": 1552,
      "Ġdifferent": 1553,
      "Ġinference": 1554,
      "ä¸ĵ": 1555,
      "Ġinterested": 1556,
      "Ġapplications": 1557,
      "Ġwould": 1558,
      "åĪĽ": 1559,
      "æĢİä¹Īæł·": 1560,
      "èĢħ": 1561,
      "Ġinstit": 1562,
      "çķ¥": 1563,
      "Ġkn": 1564,
      "æĶ¹": 1565,
      "æĭ©": 1566,
      "inforcement": 1567,
      "åĳ¢": 1568,
      "Ġprogram": 1569,
      "éĢīæĭ©": 1570,
      "Ġfollow": 1571,
      "rain": 1572,
      "Ġshap": 1573,
      "Ġcap": 1574,
      "Ġsc": 1575,
      "ä»ĸ": 1576,
      "Ġthem": 1577,
      "Ġinterests": 1578,
      "çŃĸçķ¥": 1579,
      "èħ": 1580,
      "ĠML": 1581,
      "æİ¥": 1582,
      "Industry": 1583,
      "Wang": 1584,
      "based": 1585,
      "åı«ä»Ģä¹Ī": 1586,
      "å¦Ĥä½ķ": 1587,
      "å§": 1588,
      "ised": 1589,
      "eg": 1590,
      "å¸¸": 1591,
      "Ġrigor": 1592,
      "¾è®¯": 1593,
      "èħ¾è®¯": 1594,
      "ved": 1595,
      "ward": 1596,
      "ier": 1597,
      "åŃ¦æľ¯": 1598,
      "ople": 1599,
      "ĠThe": 1600,
      "æ¸¯ä¸Ńæĸĩå¤§åŃ¦": 1601,
      "ise": 1602,
      "Ġtran": 1603,
      "éĶĻ": 1604,
      "Ġpublication": 1605,
      "åĨħ": 1606,
      "æİĪ": 1607,
      "é¦Ļæ¸¯ä¸Ńæĸĩå¤§åŃ¦": 1608,
      "Ex": 1609,
      "äº«": 1610,
      "Ġtechniqu": 1611,
      "æĦı": 1612,
      "een": 1613,
      "tiple": 1614,
      "§ç»Ń": 1615,
      "Ġthesis": 1616,
      "ç»§ç»Ń": 1617,
      "åĵªäºĽ": 1618,
      "çľĭå¥½": 1619,
      "ail": 1620,
      "Ġproduc": 1621,
      "ute": 1622,
      "Ġimproving": 1623,
      "åĪĨäº«": 1624,
      "èģĮ": 1625,
      "çŃī": 1626,
      "åŁŁ": 1627,
      "eah": 1628,
      "Ġfi": 1629,
      "é¢ĨåŁŁ": 1630,
      "Ġinterned": 1631,
      "Ġvalu": 1632,
      "æĸ¹æ³ķ": 1633,
      "æĬĢ": 1634,
      "åħ³äºİ": 1635,
      "æĻ¯": 1636,
      "åĩº": 1637,
      "æķĻæİĪ": 1638,
      "çī¹åĪ«": 1639,
      "ual": 1640,
      "Ġact": 1641,
      "è®®": 1642,
      "åħ¥": 1643,
      "bility": 1644,
      "lu": 1645,
      "ä½łå¯¹": 1646,
      "çº§": 1647,
      "Ġcode": 1648,
      "self": 1649,
      "When": 1650,
      "æĪĸ": 1651,
      "ä½łçļĦè®ºæĸĩ": 1652,
      "åįļå£«çĶŁ": 1653,
      "æĥ³æ³ķ": 1654,
      "Ġtraject": 1655,
      "Ġinstitution": 1656,
      "ç´": 1657,
      "etwor": 1658,
      "nglish": 1659,
      "å¿ĥ": 1660,
      "Ġacademic": 1661,
      "Ķ¨": 1662,
      "Ġtrad": 1663,
      "ite": 1664,
      "å®¤": 1665,
      "ĶçĶ¨": 1666,
      "Ġcho": 1667,
      "æī©æķ£æ¨¡åŀĭçļĦ": 1668,
      "è¡Į": 1669,
      "Ġstartup": 1670,
      "Most": 1671,
      "be": 1672,
      "æı": 1673,
      "Ġrel": 1674,
      "sions": 1675,
      "ĠCS": 1676,
      "åŁº": 1677,
      "ili": 1678,
      "eler": 1679,
      "elor": 1680,
      "ä½łæľī": 1681,
      "éĩĮ": 1682,
      "achelor": 1683,
      "åºĶçĶ¨": 1684,
      "ä¸įéĶĻ": 1685,
      "alleng": 1686,
      "å®ļ": 1687,
      "Ġpublications": 1688,
      "åķĬ": 1689,
      "éĹ®é¢ĺ": 1690,
      "å®ŀéªĮå®¤": 1691,
      "ious": 1692,
      "Ġspeed": 1693,
      "çĶŁæĪĲæ¨¡åŀĭ": 1694,
      "aper": 1695,
      "video": 1696,
      "Ġread": 1697,
      "etim": 1698,
      "Ġpus": 1699,
      "ocu": 1700,
      "æķĪ": 1701,
      "ocused": 1702,
      "Ġwhen": 1703,
      "æĢİä¹Īçľĭ": 1704,
      "Ġmatters": 1705,
      "Ġfundamentals": 1706,
      "Ġsign": 1707,
      "Ġtechniques": 1708,
      "ering": 1709,
      "Ġfin": 1710,
      "ä»£": 1711,
      "åħ¶": 1712,
      "å°ĳ": 1713,
      "æıĲ": 1714,
      "Yeah": 1715,
      "nth": 1716,
      "Ġcompetitive": 1717,
      "ources": 1718,
      "åħ·ä½ĵ": 1719,
      "Ġreinforcement": 1720,
      "é¡¶ä¼ļ": 1721,
      "Ġunderstanding": 1722,
      "osure": 1723,
      "Ġstand": 1724,
      "Ġenvironment": 1725,
      "ĠYou": 1726,
      "ront": 1727,
      "etimes": 1728,
      "ef": 1729,
      "tty": 1730,
      "çĪ": 1731,
      "amily": 1732,
      "Ġmakes": 1733,
      "ĠEnglish": 1734,
      "Image": 1735,
      "Ġbre": 1736,
      "éĩı": 1737,
      "éķ¿æľŁ": 1738,
      "ist": 1739,
      "ines": 1740,
      "æīĢ": 1741,
      "å¿Ļ": 1742,
      "Have": 1743,
      "av": 1744,
      "oring": 1745,
      "gest": 1746,
      "Ġacceler": 1747,
      "ason": 1748,
      "eld": 1749,
      "ä½łæľĢ": 1750,
      "Ġopen": 1751,
      "æĪĳçļĦ": 1752,
      "æłĩ": 1753,
      "wh": 1754,
      "Ġfre": 1755,
      "Ġget": 1756,
      "uture": 1757,
      "ortant": 1758,
      "æĺ¯æĪĳçļĦ": 1759,
      "onom": 1760,
      "Ġpr": 1761,
      "Ġresources": 1762,
      "åŃ¦çĶŁ": 1763,
      "Ġhapp": 1764,
      "åįĹå¤§": 1765,
      "Ġpeople": 1766,
      "te": 1767,
      "elie": 1768,
      "åįĹäº¬å¤§åŃ¦æľ¬ç§ĳ": 1769,
      "Ġchalleng": 1770,
      "timedia": 1771,
      "Ġinflu": 1772,
      "Ġpositions": 1773,
      "Ġhobbies": 1774,
      "ive": 1775,
      "su": 1776,
      "ond": 1777,
      "åıĬ": 1778,
      "utting": 1779,
      "Ġtrends": 1780,
      "Ġthink": 1781,
      "åı¯ä»¥": 1782,
      "urname": 1783,
      "è¾": 1784,
      "Ġfront": 1785,
      "Ġhard": 1786,
      "è¿Ļä¸ª": 1787,
      "Ġothers": 1788,
      "Ġhigh": 1789,
      "æĦŁåħ´è¶£": 1790,
      "éĤ": 1791,
      "åĲ§": 1792,
      "å·±": 1793,
      "Ġtimeline": 1794,
      "èĩ´": 1795,
      "èĩªå·±": 1796,
      "ernship": 1797,
      "ight": 1798,
      "Ġexperiments": 1799,
      "ways": 1800,
      "atch": 1801,
      "Ġbuilding": 1802,
      "riting": 1803,
      "avor": 1804,
      "Hi": 1805,
      "ked": 1806,
      "ery": 1807,
      "Ġreally": 1808,
      "Ġgreat": 1809,
      "ularly": 1810,
      "ä¸Ģèĩ´": 1811,
      "Ġstudents": 1812,
      "ç®Ĺ": 1813,
      "è§īå¾Ĺ": 1814,
      "åľ°": 1815,
      "ublish": 1816,
      "time": 1817,
      "åĢĻ": 1818,
      "éĤ£": 1819,
      "Ġtrac": 1820,
      "Ġcutting": 1821,
      "é¡¹": 1822,
      "å±ķ": 1823,
      "èĻ": 1824,
      "orning": 1825,
      "ĠAIèĤ¡ç¥¨": 1826,
      "æĹ¶éĹ´": 1827,
      "Ġrecent": 1828,
      "ä¸Ģèĩ´æĢ§": 1829,
      "uid": 1830,
      "Ġdon": 1831,
      "Ġwere": 1832,
      "ational": 1833,
      "Very": 1834,
      "io": 1835,
      "æ¶": 1836,
      "Ġbelie": 1837,
      "ä»İ": 1838,
      "ä½łçļĦçłĶç©¶": 1839,
      "ºĲ": 1840,
      "æ®": 1841,
      "æºĲ": 1842,
      "Ġreason": 1843,
      "Ġatt": 1844,
      "åģļçłĶç©¶": 1845,
      "è¿ĺæĺ¯": 1846,
      "æĹ¶åĢĻ": 1847,
      "Ġscaling": 1848,
      "æ´»": 1849,
      "ground": 1850,
      "Ġhas": 1851,
      "Ġshare": 1852,
      "æĮģ": 1853,
      "Ġtal": 1854,
      "åĲĮ": 1855,
      "Ġshould": 1856,
      "Ġfield": 1857,
      "Ġdec": 1858,
      "Ġyourself": 1859,
      "Ġtheory": 1860,
      "åħ³æ³¨": 1861,
      "æī©æķ£æ¨¡åŀĭåĴĮ": 1862,
      "Ġproblem": 1863,
      "kely": 1864,
      "arac": 1865,
      "odal": 1866,
      "Ġneed": 1867,
      "ĠResearch": 1868,
      "åĵį": 1869,
      "ocusing": 1870,
      "Ġfrontier": 1871,
      "aracter": 1872,
      "Both": 1873,
      "tier": 1874,
      "Ġship": 1875,
      "Ġopport": 1876,
      "æİ¨": 1877,
      "èĢģ": 1878,
      "ult": 1879,
      "ults": 1880,
      "ç»ıéªĮ": 1881,
      "They": 1882,
      "æĬĢæľ¯": 1883,
      "Can": 1884,
      "ging": 1885,
      "Ġregre": 1886,
      "olut": 1887,
      "åŃ¦åĪ°": 1888,
      "Ġsuper": 1889,
      "æŃ£": 1890,
      "Ġaccepted": 1891,
      "é¡¹çĽ®": 1892,
      "æ®µ": 1893,
      "olutely": 1894,
      "Ġfuture": 1895,
      "Ġnetwor": 1896,
      "Ġwithout": 1897,
      "å¸®": 1898,
      "Ġbackground": 1899,
      "Ġdirectly": 1900,
      "æĶ¹è¿Ľ": 1901,
      "çĪ±": 1902,
      "avorite": 1903,
      "èĻĳ": 1904,
      "éĿ": 1905,
      "oward": 1906,
      "roup": 1907,
      "Ġplanning": 1908,
      "çĽ®æłĩ": 1909,
      "æ°": 1910,
      "Ġbachelor": 1911,
      "ĠBoth": 1912,
      "Ġgraduate": 1913,
      "ities": 1914,
      "eal": 1915,
      "ĠHow": 1916,
      "Ġcore": 1917,
      "Ġresults": 1918,
      "å®ŀä¹łç»ıåİĨ": 1919,
      "Ġpreference": 1920,
      "åĮĸåŃ¦ä¹ł": 1921,
      "Ġexposure": 1922,
      "å¼ºåĮĸåŃ¦ä¹ł": 1923,
      "³»": 1924,
      "ages": 1925,
      "å½±": 1926,
      "Ġknow": 1927,
      "hy": 1928,
      "post": 1929,
      "uter": 1930,
      "erious": 1931,
      "Ġworked": 1932,
      "éĢŁ": 1933,
      "Ġoutput": 1934,
      "Abs": 1935,
      "cc": 1936,
      "visor": 1937,
      "åĨĻæĸĩç«ł": 1938,
      "Ġshaped": 1939,
      "å½±åĵį": 1940,
      "Absolutely": 1941,
      "ase": 1942,
      "Ġcharacter": 1943,
      "æŀľ": 1944,
      ").": 1945,
      "ught": 1946,
      "Ġyes": 1947,
      "arge": 1948,
      "çľŁ": 1949,
      "Ġiter": 1950,
      "æ²¿": 1951,
      "Ġclear": 1952,
      "ĠGreat": 1953,
      "èĢĥèĻĳ": 1954,
      "str": 1955,
      "Ġrep": 1956,
      "Ġgroup": 1957,
      "åĵĪ": 1958,
      "æĢİæł·": 1959,
      "ife": 1960,
      "åıĳè¿ĩ": 1961,
      "Ġenab": 1962,
      "æ¯Ķ": 1963,
      "Pre": 1964,
      "Tencent": 1965,
      "Ġday": 1966,
      "road": 1967,
      "åīįæ²¿": 1968,
      "éģ": 1969,
      "Ġfamily": 1970,
      "å·¥ç¨ĭ": 1971,
      "cale": 1972,
      "é¡¶çº§": 1973,
      "Ġautonom": 1974,
      "ition": 1975,
      "Ġimportant": 1976,
      "æĶ¶": 1977,
      "tively": 1978,
      "è§Ĩé¢ĳçĶŁæĪĲ": 1979,
      "Ġtrajectory": 1980,
      "Ġtoward": 1981,
      "Ġexploring": 1982,
      "¢éĺ": 1983,
      "Ġuser": 1984,
      "AIèĤ¡ç¥¨": 1985,
      "æ±Ĥ": 1986,
      "Ġthoughts": 1987,
      "ade": 1988,
      "Ġadvice": 1989,
      "Ġ1": 1990,
      "Ġtwo": 1991,
      "Ġpur": 1992,
      "æľºä¼ļ": 1993,
      "Ġproduction": 1994,
      "Mul": 1995,
      "å»": 1996,
      "Ġthese": 1997,
      "è¿ĺåľ¨": 1998,
      "åĽ¢éĺ": 1999,
      "ucture": 2000,
      "åĽ¢éĺŁ": 2001,
      "Yo": 2002,
      "ord": 2003,
      "Ġresearcher": 2004,
      "è®¤": 2005,
      "è´¨": 2006,
      "eel": 2007,
      "mp": 2008,
      "çĦ": 2009,
      "red": 2010,
      "Ġsim": 2011,
      "Ġsurname": 2012,
      "Ġhere": 2013,
      "ĠDiffusionåĴĮ": 2014,
      "Ġrectif": 2015,
      "Ġaligned": 2016,
      "agentic": 2017,
      "cl": 2018,
      "ï¼Ī": 2019,
      "ï¼ī": 2020,
      "Ġlife": 2021,
      "Ġstandard": 2022,
      "Com": 2023,
      "ably": 2024,
      "ä¸Ńæĸĩå¤§åŃ¦": 2025,
      "çĪ±å¥½": 2026,
      "ially": 2027,
      "Ġel": 2028,
      "Ġloo": 2029,
      "åĬ©": 2030,
      "ties": 2031,
      "Ġserious": 2032,
      "Ġthis": 2033,
      "aybe": 2034,
      "ferences": 2035,
      "Ġshar": 2036,
      "ä¿¡": 2037,
      "ĠAlso": 2038,
      "ä¸ĵæ³¨": 2039,
      "å»º": 2040,
      "row": 2041,
      "Ġnovel": 2042,
      "ç¡Ģ": 2043,
      "åŁºç¡Ģ": 2044,
      "Ġhappen": 2045,
      "Ġev": 2046,
      "Ġhyp": 2047,
      "Ġpreview": 2048,
      "åĽ¾": 2049,
      "ĠEx": 2050,
      "Ġmultiple": 2051,
      "Ġam": 2052,
      "Ġpri": 2053,
      "Ġfeed": 2054,
      "Ġreg": 2055,
      "æľīçļĦ": 2056,
      "Ġadvised": 2057,
      "Ġwhich": 2058,
      "åħ¶ä»ĸ": 2059,
      "ever": 2060,
      "Ġpath": 2061,
      "Ġfocusing": 2062,
      "ability": 2063,
      "æ¨¡": 2064,
      "Ġlater": 2065,
      "å¸®åĬ©": 2066,
      "Ġpursu": 2067,
      "scale": 2068,
      "iny": 2069,
      "Ġbr": 2070,
      "ä½łè§īå¾Ĺ": 2071,
      "åģļè¿ĩ": 2072,
      "Ġperson": 2073,
      "Ġtrack": 2074,
      "Ġ2": 2075,
      "Ġed": 2076,
      "Ġcall": 2077,
      "åıĤ": 2078,
      "Ġcomputer": 2079,
      "ours": 2080,
      "roduct": 2081,
      "Ġbrea": 2082,
      "Ġport": 2083,
      "Ġcult": 2084,
      "AIçĽ¸åħ³": 2085,
      "Ġbest": 2086,
      "éĢļ": 2087,
      "Ġengine": 2088,
      "Ġgraduation": 2089,
      "å§ĵ": 2090,
      "Ġprim": 2091,
      "è´¨éĩı": 2092,
      "strain": 2093,
      "usy": 2094,
      "read": 2095,
      "åĴĮæĻºèĥ½ä½ĵ": 2096,
      "æĪĳåľ¨": 2097,
      "ä¸įæĺ¯": 2098,
      "å¾Īæľī": 2099,
      "Ġtaught": 2100,
      "Strong": 2101,
      "Ġbiggest": 2102,
      "fol": 2103,
      "ior": 2104,
      "joy": 2105,
      "Ġjo": 2106,
      "è§Ħ": 2107,
      "éĥ½åľ¨": 2108,
      "Ġimpactful": 2109,
      "Ġdiscuss": 2110,
      "ĠDiffusionåĴĮDiffusion": 2111,
      "cess": 2112,
      "ibility": 2113,
      "ç¬": 2114,
      "å¤ª": 2115,
      "Ġconstrain": 2116,
      "æľŁéĹ´": 2117,
      "Ġprogress": 2118,
      "Ġimprovements": 2119,
      "ç´¯": 2120,
      "utions": 2121,
      "ass": 2122,
      "ream": 2123,
      "ators": 2124,
      "ortun": 2125,
      "æĹ©": 2126,
      "æµģæ¨¡åŀĭ": 2127,
      "Ġbelieve": 2128,
      "ween": 2129,
      "èİ": 2130,
      "Ġent": 2131,
      "ĠStrong": 2132,
      "Ġportfol": 2133,
      "no": 2134,
      "ons": 2135,
      "Ġaff": 2136,
      "Ġproduct": 2137,
      "ically": 2138,
      "Ġlarge": 2139,
      "Ġconferences": 2140,
      "æĪĳæĺ¯": 2141,
      "velop": 2142,
      "Ġhelps": 2143,
      "éĻħ": 2144,
      "Ġmeans": 2145,
      "Ġconnect": 2146,
      "ä¸¤ç¯ĩ": 2147,
      "apers": 2148,
      "èĢģå¸Ī": 2149,
      "èİ·": 2150,
      "Ġref": 2151,
      "åħĪ": 2152,
      "ä¸Ģä¸ĭ": 2153,
      "åĽĽ": 2154,
      "Ġproject": 2155,
      "Ġculture": 2156,
      "nam": 2157,
      "Ġsk": 2158,
      "Ġbu": 2159,
      "AIçļĦ": 2160,
      "è¯·": 2161,
      "Ġclar": 2162,
      "åķ¥": 2163,
      "pecially": 2164,
      "Ġoffers": 2165,
      "Ġportfolio": 2166,
      "ace": 2167,
      "ling": 2168,
      "ç³»": 2169,
      "ection": 2170,
      "Ġkey": 2171,
      "Ġoutside": 2172,
      "è·Ł": 2173,
      "ificant": 2174,
      "ç®Ģ": 2175,
      "ancing": 2176,
      "Ġinfluence": 2177,
      "ublished": 2178,
      "Ġeduc": 2179,
      "back": 2180,
      "èº": 2181,
      "éľ": 2182,
      "Ġown": 2183,
      "old": 2184,
      "ç§¯": 2185,
      "å¾Īå¤ļ": 2186,
      "Ġsoon": 2187,
      "Ġinfra": 2188,
      "Ġcharacters": 2189,
      "hen": 2190,
      "ĠLab": 2191,
      "esc": 2192,
      "especially": 2193,
      "Ġsect": 2194,
      "Ġconc": 2195,
      "Ġprof": 2196,
      "åİĤ": 2197,
      "åĿ": 2198,
      "éĥ": 2199,
      "ï¼ģ": 2200,
      "Ġbec": 2201,
      "Ġguid": 2202,
      "æĺ¯ä½łçļĦ": 2203,
      "å¤§åİĤ": 2204,
      "Ġcomb": 2205,
      "Ġteams": 2206,
      "structure": 2207,
      "Ġconstraints": 2208,
      "èº«": 2209,
      "éĥ¨": 2210,
      "'d": 2211,
      "bably": 2212,
      "Ġless": 2213,
      "è®ºæĸĩåĲĹ": 2214,
      "åĨ³": 2215,
      "åıĳå±ķ": 2216,
      "è¯»çļĦ": 2217,
      "Ġcollaborators": 2218,
      "åīįæĻ¯": 2219,
      "åı¯èĥ½": 2220,
      "Ġinfrastructure": 2221,
      "åĥ": 2222,
      "Ġman": 2223,
      "edom": 2224,
      "Ġsub": 2225,
      "entr": 2226,
      "Ġbuild": 2227,
      "æīĵ": 2228,
      "åĥı": 2229,
      "ĠJust": 2230,
      "Ġfar": 2231,
      "ç»ĵ": 2232,
      "æł¸": 2233,
      "Ġmake": 2234,
      "Ġcontroll": 2235,
      "off": 2236,
      "uff": 2237,
      "çĿ": 2238,
      "Ġworks": 2239,
      "Ġvs": 2240,
      "å¼ķ": 2241,
      "Ġdevelop": 2242,
      "Ġprompts": 2243,
      "Writing": 2244,
      "ha": 2245,
      "los": 2246,
      "ĠIn": 2247,
      "ĠInt": 2248,
      "ĠLet": 2249,
      "ĠAll": 2250,
      "Ġoptimize": 2251,
      "timodal": 2252,
      "ä¸ºä»Ģä¹ĪéĢīæĭ©": 2253,
      "Ġwhile": 2254,
      "Ġexcites": 2255,
      "åĽ¾åĥı": 2256,
      "Ġsector": 2257,
      "Would": 2258,
      "ci": 2259,
      "com": 2260,
      "åĹ": 2261,
      "sition": 2262,
      "ĠPost": 2263,
      "Ġstuff": 2264,
      "Ġpres": 2265,
      "Ġrecord": 2266,
      "å¿«": 2267,
      "Ġcollaborate": 2268,
      "æī¾å·¥ä½ľ": 2269,
      "åĩłç¯ĩ": 2270,
      "My": 2271,
      "Some": 2272,
      "Two": 2273,
      "aking": 2274,
      "¶æ®µ": 2275,
      "ä¸ľ": 2276,
      "è®©": 2277,
      "è¿Ļæĺ¯": 2278,
      "æł¸å¿ĥ": 2279,
      "å¯¼å¸Īæĺ¯": 2280,
      "Internship": 2281,
      "Ġrectification": 2282,
      "dy": 2283,
      "¥¿": 2284,
      "è¥¿": 2285,
      "Ġespecially": 2286,
      "Ġtas": 2287,
      "Ġimages": 2288,
      "ç§°": 2289,
      "ewor": 2290,
      "Ġsolving": 2291,
      "escrib": 2292,
      "ä¸ľè¥¿": 2293,
      "ert": 2294,
      "å¢": 2295,
      "çłĶ": 2296,
      "ĠWor": 2297,
      "angu": 2298,
      "ello": 2299,
      "ä¸ĢäºĽ": 2300,
      "Ġemp": 2301,
      "éĺ¶æ®µ": 2302,
      "çĦ¶": 2303,
      "escribe": 2304,
      "Ġconf": 2305,
      "ä½łçļĦæľ¬ç§ĳ": 2306,
      "æ¯ķä¸ļåĲİ": 2307,
      "å¹³è¡": 2308,
      "Ġattend": 2309,
      "Ġprior": 2310,
      "ç§¯ç´¯": 2311,
      "ping": 2312,
      "èĭ": 2313,
      "Ġpot": 2314,
      "alid": 2315,
      "etail": 2316,
      "Ġstep": 2317,
      "¡åĪ": 2318,
      "Ġbetween": 2319,
      "aniz": 2320,
      "ä¸İ": 2321,
      "Ġloc": 2322,
      "åŃ¦ä½į": 2323,
      "Ġusing": 2324,
      "å¤§çļĦ": 2325,
      "æĢģ": 2326,
      "ellent": 2327,
      "ä¼ļè®®": 2328,
      "The": 2329,
      "Ġeverything": 2330,
      "Ġfreedom": 2331,
      "ynam": 2332,
      "onest": 2333,
      "Ġdynam": 2334,
      "ä¹ĭ": 2335,
      "Ġgot": 2336,
      "å¾ħ": 2337,
      "çĽ´": 2338,
      "ope": 2339,
      "Ġdepth": 2340,
      "Ġoutputs": 2341,
      "On": 2342,
      "Pro": 2343,
      "ug": 2344,
      "Ġæ±ª": 2345,
      "Ġstill": 2346,
      "åĴĭ": 2347,
      "ossi": 2348,
      "Ġenjoy": 2349,
      "Ġprepare": 2350,
      "Ġfeedback": 2351,
      "ortune": 2352,
      "Name": 2353,
      "Som": 2354,
      "focused": 2355,
      "line": 2356,
      "å®ī": 2357,
      "å¤ļå°ĳ": 2358,
      "Start": 2359,
      "è¿ĻäºĽåħ¬åı¸": 2360,
      "ID": 2361,
      "Ġfeel": 2362,
      "hilos": 2363,
      "ä»ĭ": 2364,
      "ections": 2365,
      "Ġenough": 2366,
      "Ġmostly": 2367,
      "Ġmeaning": 2368,
      "Ġskill": 2369,
      "hilosop": 2370,
      "ible": 2371,
      "Ġphilosop": 2372,
      "till": 2373,
      "ited": 2374,
      "Ġmodeling": 2375,
      "Ġeach": 2376,
      "å¥½çļĦ": 2377,
      "å¹²": 2378,
      "Ġpush": 2379,
      "Ġsignificant": 2380,
      "æ¶ī": 2381,
      "Ġregrets": 2382,
      "Four": 2383,
      "hor": 2384,
      "Ġ5": 2385,
      "iming": 2386,
      "Ġbroad": 2387,
      "lect": 2388,
      "Ġapply": 2389,
      "ething": 2390,
      "çİĩ": 2391,
      "Ġtrans": 2392,
      "æ¶īåıĬ": 2393,
      "uce": 2394,
      "ç¤": 2395,
      "atur": 2396,
      "Ġtreat": 2397,
      "Ġrele": 2398,
      "sionally": 2399,
      "unities": 2400,
      "è®¡åĪ": 2401,
      "ç»į": 2402,
      "æ¸¯ä¸Ńå¤§": 2403,
      "Ġpotential": 2404,
      "ä»ĭç»į": 2405,
      "è®¡åĪĴ": 2406,
      "ix": 2407,
      "Ġfit": 2408,
      "ä½łçİ°åľ¨": 2409,
      "åĲĦ": 2410,
      "Ġcoming": 2411,
      "Ġvalid": 2412,
      "æµģæ¨¡åŀĭçļĦ": 2413,
      "Ġexplore": 2414,
      "Ġmultimodal": 2415,
      "Ġcomplex": 2416,
      "åİ»è¿ĩ": 2417,
      "Ġgrow": 2418,
      "ĠIndustry": 2419,
      "Ġoften": 2420,
      "é¢Ħ": 2421,
      "Ġcollaboration": 2422,
      "Ġcontribution": 2423,
      "æľĢè¿ĳåľ¨": 2424,
      "å®¶åħ¬åı¸": 2425,
      "Ġtransition": 2426,
      "Ġchoose": 2427,
      "Mostly": 2428,
      "cca": 2429,
      "bod": 2430,
      "vely": 2431,
      "Ġreward": 2432,
      "vers": 2433,
      "Ġactively": 2434,
      "äºĨä»Ģä¹Ī": 2435,
      "çī¹åĪ«æĺ¯": 2436,
      "Ġreasoning": 2437,
      "éľĢ": 2438,
      "Ġphilosophy": 2439,
      "Ġdetail": 2440,
      "Ġret": 2441,
      "ä½łæĢİä¹Ī": 2442,
      "ä»Ģä¹ĪæĹ¶åĢĻ": 2443,
      "Ġinteresting": 2444,
      "Ġleading": 2445,
      "Ġkeeps": 2446,
      "Ġvaluable": 2447,
      "¢«": 2448,
      "è¢«": 2449,
      "ä¹ħ": 2450,
      "Ġled": 2451,
      "å®¹": 2452,
      "Ġactive": 2453,
      "Ġplus": 2454,
      "Ġfoundational": 2455,
      "Ġspecial": 2456,
      "éĻ¤": 2457,
      "æ·±åº¦": 2458,
      "Ġsomething": 2459,
      "åĪĽæĸ°": 2460,
      "In": 2461,
      "Qu": 2462,
      "aining": 2463,
      "ru": 2464,
      "ense": 2465,
      "ä¹¦": 2466,
      "ä½łå¥½": 2467,
      "è®¡": 2468,
      "Ġcompute": 2469,
      "è§ģ": 2470,
      "Ġenable": 2471,
      "Ġupd": 2472,
      "Ġdirections": 2473,
      "åĲĪä½ľ": 2474,
      "Ġperspec": 2475,
      "Ġspecifically": 2476,
      "Expl": 2477,
      "where": 2478,
      "Ġhyphen": 2479,
      "Ġdynamics": 2480,
      "Ġ'": 2481,
      "Ġmade": 2482,
      "Ġfavorite": 2483,
      "åįķ": 2484,
      "éĥ½å¾Ī": 2485,
      "Ġpublishing": 2486,
      "çĽ®åīį": 2487,
      "èģĬ": 2488,
      "å¹³è¡¡": 2489,
      "bodied": 2490,
      "Ġfine": 2491,
      "Ġinv": 2492,
      "Ġthings": 2493,
      "ower": 2494,
      "Ġlangu": 2495,
      "olle": 2496,
      "çİ¯": 2497,
      "Ġimproves": 2498,
      "ä¸»è¦ģæĺ¯": 2499,
      "Ġexpert": 2500,
      "Ġgraduating": 2501,
      "å®Į": 2502,
      "æĢĿèĢĥ": 2503,
      "å¾Īå¤§": 2504,
      "Ġtopics": 2505,
      "é¦Ļæ¸¯": 2506,
      "è¾ĥ": 2507,
      "Building": 2508,
      "loc": 2509,
      "Ġ3": 2510,
      "ree": 2511,
      "ï¼ļ": 2512,
      "Ġwe": 2513,
      "Ġcame": 2514,
      "Ġsm": 2515,
      "Ġground": 2516,
      "Ġadd": 2517,
      "ĠSome": 2518,
      "åĨĻZhihu": 2519,
      "Pretty": 2520,
      "ready": 2521,
      "ç¬Ķ": 2522,
      "èĭ±": 2523,
      "Maybe": 2524,
      "nce": 2525,
      "ount": 2526,
      "Ġben": 2527,
      "Ġtheore": 2528,
      "Ġtheir": 2529,
      "Ġconsid": 2530,
      "ä½łåľ¨åĵª": 2531,
      "eek": 2532,
      "Ġpracti": 2533,
      "æĶ¶èİ·": 2534,
      "Ġlooking": 2535,
      "Ġengineering": 2536,
      "æĪĳæĺ¯æ±ªç¦ıè¿Ĳ": 2537,
      "ç¬ĶåĲį": 2538,
      "èĭ±æĸĩ": 2539,
      "ze": 2540,
      "å¤©": 2541,
      "quire": 2542,
      "èµ·": 2543,
      "Worked": 2544,
      "Ġdom": 2545,
      "vening": 2546,
      "åĽ½åĨħ": 2547,
      "æķĪçİĩ": 2548,
      "Ġnetwork": 2549,
      "Ġtasks": 2550,
      "Ġtreating": 2551,
      "Imp": 2552,
      "ont": 2553,
      "¦åı": 2554,
      "Ġ+": 2555,
      "Ġè¿Ĳ": 2556,
      "Ġsearch": 2557,
      "MMLabçļĦ": 2558,
      "Ġshow": 2559,
      "ĠEach": 2560,
      "ilities": 2561,
      "Ġautonomous": 2562,
      "aily": 2563,
      "sive": 2564,
      "ç§ĳçłĶ": 2565,
      "ewh": 2566,
      "ourn": 2567,
      "Ġstudied": 2568,
      "Ġjourn": 2569,
      "ä¸Ģä¸ª": 2570,
      "roduce": 2571,
      "è·³": 2572,
      "Ġembodied": 2573,
      "Ġcoding": 2574,
      "åĢ¼": 2575,
      "ĠHe": 2576,
      "nthe": 2577,
      "Ġopportunities": 2578,
      "everal": 2579,
      "Ġbreak": 2580,
      "å¢ĥ": 2581,
      "éĻ¤äºĨ": 2582,
      "sp": 2583,
      "çĥ": 2584,
      "Ġinform": 2585,
      "èµĦæºĲ": 2586,
      "åºĶ": 2587,
      "Ġoffer": 2588,
      "åĨħå®¹": 2589,
      "Ġenabling": 2590,
      "å»ºè®®": 2591,
      "Long": 2592,
      "Ġyet": 2593,
      "Ġcolle": 2594,
      "ently": 2595,
      "Ġnam": 2596,
      "Ġhear": 2597,
      "åľ¨çŁ¥ä¹İ": 2598,
      "ĠMost": 2599,
      "çłĶç©¶æĸ¹åĲĳ": 2600,
      "Ġposts": 2601,
      "ritical": 2602,
      "è¯Ĩ": 2603,
      "Ġsynthe": 2604,
      "Ġspell": 2605,
      "æī©æķ£æ¨¡åŀĭåĲİè®Ńç»ĥ": 2606,
      "èĤ¡ç¥¨æĬķèµĦ": 2607,
      "åĩĨ": 2608,
      "çĲĨè§£": 2609,
      "eading": 2610,
      "Ġposition": 2611,
      "Ġpushing": 2612,
      "Ġregularly": 2613,
      "Ġaffili": 2614,
      "Ġclarif": 2615,
      "Ad": 2616,
      "Morning": 2617,
      "ĨĴ": 2618,
      "Ġcatch": 2619,
      "Ġrem": 2620,
      "lex": 2621,
      "äº§": 2622,
      "industry": 2623,
      "çĶŁæ´»": 2624,
      "Ġvia": 2625,
      "æĻļ": 2626,
      "çĽ¸ä¿¡": 2627,
      "Ġmotiv": 2628,
      "Ġmentorship": 2629,
      "Ġactually": 2630,
      "æ¯Ķè¾ĥ": 2631,
      "ç»ĵåĲĪ": 2632,
      "ework": 2633,
      "Ġskills": 2634,
      "çİ¯å¢ĥ": 2635,
      "Li": 2636,
      "land": 2637,
      "è½": 2638,
      "Ġrequire": 2639,
      "itely": 2640,
      "omm": 2641,
      "Ġlot": 2642,
      "åħħ": 2643,
      "ç»Ħ": 2644,
      "ç»Ļ": 2645,
      "ĠThen": 2646,
      "urrently": 2647,
      "Ġfundamental": 2648,
      "Ġsometimes": 2649,
      "çĿĢ": 2650,
      "åĹ¨": 2651,
      "Ġreturn": 2652,
      "Hello": 2653,
      "doc": 2654,
      "ues": 2655,
      "Ġdaily": 2656,
      "Ġequ": 2657,
      "ĠNPO": 2658,
      "ä½łçļĦPhD": 2659,
      "Ġgoal": 2660,
      "è§¦": 2661,
      "Ġplay": 2662,
      "Ġcollaborations": 2663,
      "ç¡®": 2664,
      "Ġprimary": 2665,
      "Focus": 2666,
      "initely": 2667,
      "Ġphased": 2668,
      "ä½łæĢİä¹Īçľĭ": 2669,
      "Ġresearching": 2670,
      "æĺ¯æĢĿæĤ¥": 2671,
      "ä»¬": 2672,
      "ĠWe": 2673,
      "Ġstudies": 2674,
      "Ġgoals": 2675,
      "Ġteach": 2676,
      "Ġpublic": 2677,
      "Ġwritten": 2678,
      "irect": 2679,
      "Ġadvisors": 2680,
      "è¿Ľåħ¥": 2681,
      "Ġapplied": 2682,
      "Ġsupport": 2683,
      "Ġenvironments": 2684,
      "Ġdiscussions": 2685,
      "åŃĹèĬĤè·³": 2686,
      "Ġrigorous": 2687,
      "Multimedia": 2688,
      "åŃĹèĬĤè·³åĬ¨": 2689,
      "inu": 2690,
      "Ġgave": 2691,
      "æĺ¯ä½ł": 2692,
      "ĠPublished": 2693,
      "Ġconference": 2694,
      "Ġsolve": 2695,
      "Ġideal": 2696,
      "æĮĩ": 2697,
      "åĬłéĢŁ": 2698,
      "æİ¥è§¦": 2699,
      "Ġpersonal": 2700,
      "ip": 2701,
      "Ġç¦ıè¿Ĳ": 2702,
      "int": 2703,
      "ined": 2704,
      "orre": 2705,
      "arily": 2706,
      "isk": 2707,
      "Ġhad": 2708,
      "agues": 2709,
      "Ġcommon": 2710,
      "Working": 2711,
      "Ġdeci": 2712,
      "Ġreproduc": 2713,
      "Ġhappening": 2714,
      "Ġdetails": 2715,
      "Un": 2716,
      "imp": 2717,
      "Ġtyp": 2718,
      "Ġfew": 2719,
      "åĴĮæĬķèµĦ": 2720,
      "æķ°": 2721,
      "åħ³éĶ": 2722,
      "Ġstarting": 2723,
      "ConsistencySolveråĴĮ": 2724,
      "æĦıæĢĿ": 2725,
      "itional": 2726,
      "Ġguidance": 2727,
      "Ġlocation": 2728,
      "onestly": 2729,
      "Ġexpertise": 2730,
      "åħ³éĶ®": 2731,
      "'ll": 2732,
      "bug": 2733,
      "mis": 2734,
      "ending": 2735,
      "Ġfortune": 2736,
      "Ġdat": 2737,
      "Ġway": 2738,
      "alary": 2739,
      "ç»Ł": 2740,
      "å®ŀéĻħ": 2741,
      "åĨĻä½ľ": 2742,
      "Ġmaint": 2743,
      "Ġalso": 2744,
      "æĿİé¸¿åįĩæķĻæİĪ": 2745,
      "Ġengage": 2746,
      "å§ĭ": 2747,
      "Ġsuperv": 2748,
      "Probably": 2749,
      "Ġmind": 2750,
      "Ġph": 2751,
      "Ġdri": 2752,
      "abilities": 2753,
      "CUHKçļĦ": 2754,
      "å¸Ĥ": 2755,
      "Ġmatch": 2756,
      "argeting": 2757,
      "ique": 2758,
      "Ġapproaches": 2759,
      "Ġcapabilities": 2760,
      "Ġtrade": 2761,
      "Ġcontrollable": 2762,
      "Sometimes": 2763,
      "Ġsignificantly": 2764,
      "æµģæ¨¡åŀĭçļĦåĲİè®Ńç»ĥ": 2765,
      "Ġaffiliation": 2766,
      "Describe": 2767,
      "Open": 2768,
      "lan": 2769,
      "©º": 2770,
      "åĺ": 2771,
      "ç²": 2772,
      "ç©º": 2773,
      "Ġaround": 2774,
      "oral": 2775,
      "ä¸ī": 2776,
      "tern": 2777,
      "Ġlate": 2778,
      "2026": 2779,
      "Ġhum": 2780,
      "Ġagain": 2781,
      "ize": 2782,
      "èĥ½åĬĽ": 2783,
      "uck": 2784,
      "Ġview": 2785,
      "Ġstarted": 2786,
      "ä¸ĸçķĮæ¨¡åŀĭåĴĮæĻºèĥ½ä½ĵ": 2787,
      "Ġstartups": 2788,
      "Ġpar": 2789,
      "Ġpick": 2790,
      "Ġcr": 2791,
      "tives": 2792,
      "Ġsoc": 2793,
      "åľ¨åĵªä¸ª": 2794,
      "olid": 2795,
      "Ġprov": 2796,
      "äºĨåĲĹ": 2797,
      "caling": 2798,
      "å¼ı": 2799,
      "PhDåŃ¦çĶŁ": 2800,
      "Ġthanks": 2801,
      "Ġconnections": 2802,
      "ĠAlways": 2803,
      "åĪĽä¸ļ": 2804,
      "Ġtheoretical": 2805,
      "ConsistencySolveråĴĮImage": 2806,
      "der": 2807,
      "ned": 2808,
      "rind": 2809,
      "wit": 2810,
      "yle": 2811,
      "éħ": 2812,
      "éļ": 2813,
      "Ġweek": 2814,
      "Ġsa": 2815,
      "Ġnatur": 2816,
      "Ġcontributions": 2817,
      "Ġpeers": 2818,
      "å¼ĢæºĲ": 2819,
      "ĠOpen": 2820,
      "Ġchallenges": 2821,
      "Comp": 2822,
      "æ¨¡æĢģ": 2823,
      "Ġsynthesis": 2824,
      "Con": 2825,
      "aut": 2826,
      "med": 2827,
      "assive": 2828,
      "Ġmorning": 2829,
      "iting": 2830,
      "rap": 2831,
      "very": 2832,
      "æľīæ²¡æľī": 2833,
      "Ġplat": 2834,
      "Ġmentors": 2835,
      "è§Ĩè§ī": 2836,
      "Ġperform": 2837,
      "èģĮä¸ļ": 2838,
      "class": 2839,
      "Ġeducation": 2840,
      "åĿļ": 2841,
      "çĽ´æİ¥": 2842,
      "Ġpractice": 2843,
      "yond": 2844,
      "Ã¹": 2845,
      "åĦ": 2846,
      "èĥ": 2847,
      "Ġfind": 2848,
      "ä½łåı«": 2849,
      "éĥ½æľī": 2850,
      "åĽŀ": 2851,
      "å¤ļæ¨¡æĢģ": 2852,
      "åĨĻçŁ¥ä¹İ": 2853,
      "ä¸»è¦ģåģļ": 2854,
      "ç»ıå¸¸": 2855,
      "andard": 2856,
      "è§£åĨ³": 2857,
      "æŃ¥": 2858,
      "åħ¨åĲį": 2859,
      "ather": 2860,
      "Ġscience": 2861,
      "éĿ¢": 2862,
      "å½±åĵįåĬĽ": 2863,
      "Ġiteration": 2864,
      "ç®Ģåįķ": 2865,
      "ccasionally": 2866,
      "Ġlanguage": 2867,
      "Ġjourney": 2868,
      "åĦ¿": 2869,
      "fect": 2870,
      "assion": 2871,
      "Ġdown": 2872,
      "Ġlast": 2873,
      "ety": 2874,
      "Ġbeyond": 2875,
      "ource": 2876,
      "vily": 2877,
      "lies": 2878,
      "Ġunique": 2879,
      "Ġcollaborative": 2880,
      "ä¸Ĭå¥½": 2881,
      "eavily": 2882,
      "Ġrisk": 2883,
      "å½ĵ": 2884,
      "å¹³æĹ¶": 2885,
      "å¼Ģå§ĭ": 2886,
      "é¡¶ä¼ļè®ºæĸĩ": 2887,
      "ç³»ç»Ł": 2888,
      "Ġempir": 2889,
      "åĴĭæł·": 2890,
      "ç¤º": 2891,
      "éľĢè¦ģ": 2892,
      "Explain": 2893,
      "Ġcolleagues": 2894,
      "èĥĮ": 2895,
      "Al": 2896,
      "Ha": 2897,
      "Ġpower": 2898,
      "Ġfram": 2899,
      "å¤ĩ": 2900,
      "Ġarea": 2901,
      "Ġorder": 2902,
      "å®ŀä¹łä¸Ń": 2903,
      "lif": 2904,
      "Ġunloc": 2905,
      "è´¦åı": 2906,
      "ä¿Ŀ": 2907,
      "æī©æķ£æ¨¡åŀĭåĴĮä¸ĸçķĮæ¨¡åŀĭ": 2908,
      "Ġopportunity": 2909,
      "Ġsharing": 2910,
      "Ġconfid": 2911,
      "è®¡ç®Ĺ": 2912,
      "ommend": 2913,
      "èĥĮæĻ¯": 2914,
      "è´¦åı·": 2915,
      "Def": 2916,
      "Were": 2917,
      "ĠV": 2918,
      "enior": 2919,
      "Ġgain": 2920,
      "ĠNow": 2921,
      "Ġprocess": 2922,
      "èĢĮ": 2923,
      "æĥħ": 2924,
      "Ġtiming": 2925,
      "åı«æ±ªç¦ıè¿Ĳ": 2926,
      "Ġmainland": 2927,
      "Ġexcellent": 2928,
      "Ġvenue": 2929,
      "Ġcurrently": 2930,
      "Ġformal": 2931,
      "Ġfinish": 2932,
      "éħį": 2933,
      "Us": 2934,
      "Ġreview": 2935,
      "çļĦæĸ¹åĲĳ": 2936,
      "ä½łä¼ļ": 2937,
      "ä½łåı«ä»Ģä¹Ī": 2938,
      "AIæĺ¯": 2939,
      "åľ¨Google": 2940,
      "çłģ": 2941,
      "Ġmeet": 2942,
      "Ġmaking": 2943,
      "åĽł": 2944,
      "Ġsample": 2945,
      "Ġleads": 2946,
      "Ġaccept": 2947,
      "Collabor": 2948,
      "asi": 2949,
      "Ãº": 2950,
      "Ġcount": 2951,
      "Ġbusy": 2952,
      "Ġgrind": 2953,
      "etr": 2954,
      "etting": 2955,
      "Ġhold": 2956,
      "Ġthey": 2957,
      "åıĺ": 2958,
      "Howdy": 2959,
      "uted": 2960,
      "ä»Ģä¹Īäºĭ": 2961,
      "estiny": 2962,
      "Ġwho": 2963,
      "è¿ĺä¸įéĶĻ": 2964,
      "å¾Īéĩįè¦ģ": 2965,
      "Ġrecommend": 2966,
      "Ġmarkets": 2967,
      "Ġidea": 2968,
      "Ġmoving": 2969,
      "Ġmultimedia": 2970,
      "aluable": 2971,
      "Ġgrowth": 2972,
      "Ġrewarding": 2973,
      "æĮĩå¯¼": 2974,
      "Ã¹n": 2975,
      "èį": 2976,
      "Ġside": 2977,
      "ases": 2978,
      "Ġflex": 2979,
      "Ġsalary": 2980,
      "Ġonline": 2981,
      "Ġgive": 2982,
      "Ġpostdoc": 2983,
      "ored": 2984,
      "Ġcompl": 2985,
      "è¯¥": 2986,
      "Ġbetting": 2987,
      "Ġrecru": 2988,
      "Ġexpect": 2989,
      "Ġalong": 2990,
      "çº¢": 2991,
      "Ġsocial": 2992,
      "Definitely": 2993,
      "éĴ": 2994,
      "ought": 2995,
      "Ġmom": 2996,
      "Ġinc": 2997,
      "Ġdream": 2998,
      "Ġcours": 2999,
      "åĪĴ": 3000,
      "Doing": 3001,
      "èĤ¡å": 3002,
      "Ġchang": 3003,
      "ĠThey": 3004,
      "è·¯": 3005,
      "Ġexperiment": 3006,
      "Ġchoice": 3007,
      "ä»£çłģ": 3008,
      "Ġmanage": 3009,
      "orrect": 3010,
      "Ġprovid": 3011,
      "Ġcomplain": 3012,
      "cadem": 3013,
      "é£": 3014,
      "ĠYun": 3015,
      "Ġexact": 3016,
      "æľĢå¤§çļĦ": 3017,
      "ized": 3018,
      "Ġcontent": 3019,
      "æĶ¾": 3020,
      "Ġvalue": 3021,
      "ä¸Ģèĩ´æĢ§æ¨¡åŀĭ": 3022,
      "åıĤä¸İ": 3023,
      "éĢļè¿ĩ": 3024,
      "è§ĦåĪĴ": 3025,
      "noon": 3026,
      "è¯·éĹ®": 3027,
      "å¼ķçĶ¨": 3028,
      "Ġupdated": 3029,
      "Ġhuman": 3030,
      "bly": 3031,
      "mar": 3032,
      "name": 3033,
      "ness": 3034,
      "oti": 3035,
      "ç½": 3036,
      "Ġç¦ı": 3037,
      "ĠPro": 3038,
      "ĠSh": 3039,
      "æľ¬ç§ĳåľ¨": 3040,
      "ures": 3041,
      "è¯»ä¹¦": 3042,
      "Ġdebug": 3043,
      "æĿİçº¢": 3044,
      "çĽ¸åħ³çļĦ": 3045,
      "ç¨¿": 3046,
      "Ġsci": 3047,
      "egoti": 3048,
      "Ġconsider": 3049,
      "æĿİçº¢çĶŁ": 3050,
      "10": 3051,
      "GI": 3052,
      "Still": 3053,
      "Scaling": 3054,
      "ws": 3055,
      "æļ": 3056,
      "Ġdra": 3057,
      "alancing": 3058,
      "Ġsec": 3059,
      "AIé¢ĨåŁŁ": 3060,
      "Ġnon": 3061,
      "å¤ĸ": 3062,
      "åľ¨ICLR": 3063,
      "çłĶç©¶çļĦ": 3064,
      "that": 3065,
      "through": 3066,
      "ilar": 3067,
      "Ġdef": 3068,
      "Ġdoesn": 3069,
      "ç«ŀ": 3070,
      "Ġexciting": 3071,
      "Ġevery": 3072,
      "Ġlately": 3073,
      "Ġbrid": 3074,
      "Ġaddress": 3075,
      "ced": 3076,
      "âĨĴ": 3077,
      "æģ": 3078,
      "ately": 3079,
      "ories": 3080,
      "äºī": 3081,
      "olved": 3082,
      "Ġgeneral": 3083,
      "ĠLear": 3084,
      "å·²": 3085,
      "likely": 3086,
      "Ġcoh": 3087,
      "åĬ¿": 3088,
      "è¿Ļæĺ¯æĪĳ": 3089,
      "Ġdesi": 3090,
      "Ġrather": 3091,
      "Ġdeeply": 3092,
      "putation": 3093,
      "çľŁåĲį": 3094,
      "éģĵ": 3095,
      "inyin": 3096,
      "éĥ¨åĪĨ": 3097,
      "ewhere": 3098,
      "åºĶè¯¥": 3099,
      "èįĲ": 3100,
      "Favorite": 3101,
      "fety": 3102,
      "Ġpip": 3103,
      "ä½łæľīä»Ģä¹Ī": 3104,
      "ä»½": 3105,
      "ustri": 3106,
      "ength": 3107,
      "ĠWant": 3108,
      "rief": 3109,
      "vesting": 3110,
      "åĨį": 3111,
      "å·¥ä½ľåĲĹ": 3112,
      "eural": 3113,
      "éĩĩ": 3114,
      "åĽ´": 3115,
      "ä½łåľ¨çŁ¥ä¹İ": 3116,
      "Ġasp": 3117,
      "Ġclos": 3118,
      "éĩįçĤ¹": 3119,
      "Ġmoved": 3120,
      "Ġmonth": 3121,
      "ä»¥åıĬ": 3122,
      "World": 3123,
      "Ġcontribute": 3124,
      "Ġcompleted": 3125,
      "æİ¨èįĲ": 3126,
      "Ġpursue": 3127,
      "Ġjoining": 3128,
      "çĥŃ": 3129,
      "impact": 3130,
      "éĴ±": 3131,
      "Tor": 3132,
      "Top": 3133,
      "ign": 3134,
      "ising": 3135,
      "yTor": 3136,
      "Ġrom": 3137,
      "Ġpol": 3138,
      "Ġsem": 3139,
      "Ġbased": 3140,
      "Ġstyle": 3141,
      "Ġhours": 3142,
      "åĴĮä¸ĸçķĮæ¨¡åŀĭ": 3143,
      "Ġagent": 3144,
      "å®ŀä¹łæľŁéĹ´": 3145,
      "ä¸įä¼ļ": 3146,
      "ä¸įå¤ª": 3147,
      "åĲİæĿ¥": 3148,
      "ether": 3149,
      "ä½łæĺ¯è°ģ": 3150,
      "Ġchallenge": 3151,
      "Ġhardest": 3152,
      "Ġbroader": 3153,
      "åĩĨå¤ĩ": 3154,
      "é£İ": 3155,
      "yTorch": 3156,
      "Ġromaniz": 3157,
      "None": 3158,
      "Papers": 3159,
      "Ġmedia": 3160,
      "Ġmetr": 3161,
      "æĺ¯è°ģ": 3162,
      "Ġobs": 3163,
      "epar": 3164,
      "olog": 3165,
      "æľĢæĸ°": 3166,
      "æĪĲæŀľ": 3167,
      "ä½łåľ¨åĵªä¸ª": 3168,
      "forms": 3169,
      "Ġalways": 3170,
      "entist": 3171,
      "Ġknown": 3172,
      "çľĭå¥½AI": 3173,
      "æıĲç¤º": 3174,
      "åıĤåĬł": 3175,
      "ĠInternship": 3176,
      "Ġmoment": 3177,
      "cally": 3178,
      "ying": 3179,
      "stantly": 3180,
      "Ġmis": 3181,
      "Ġdone": 3182,
      "Ġdist": 3183,
      "Ġsur": 3184,
      "ä»·": 3185,
      "ots": 3186,
      "æīį": 3187,
      "quality": 3188,
      "orth": 3189,
      "åıĳäºĨ": 3190,
      "Ġchat": 3191,
      "Ġexperi": 3192,
      "æ¸ħ": 3193,
      "åĳ¼": 3194,
      "æĮº": 3195,
      "Ġemer": 3196,
      "Ġengag": 3197,
      "Ġformally": 3198,
      "ä»£è¡¨": 3199,
      "Ġpresent": 3200,
      "Quality": 3201,
      "Ġperformance": 3202,
      "ract": 3203,
      "Ġheavily": 3204,
      "ĠNot": 3205,
      "ä½łçļĦæĬķèµĦ": 3206,
      "Ġrectified": 3207,
      "Ġhelped": 3208,
      "è¯´åĲ§": 3209,
      "Everything": 3210,
      "éĿŀ": 3211,
      "Ġautonomy": 3212,
      "ä»ĭç»įä¸Ģä¸ĭ": 3213,
      "Ġdomin": 3214,
      "Ġscientist": 3215,
      "éĩĩæł·": 3216,
      "Cont": 3217,
      "Fin": 3218,
      "Same": 3219,
      "even": 3220,
      "¢ç´": 3221,
      "sively": 3222,
      "orm": 3223,
      "Ġpron": 3224,
      "aries": 3225,
      "elines": 3226,
      "Ġsepar": 3227,
      "çļĦåĲĹ": 3228,
      "ises": 3229,
      "æĺİ": 3230,
      "ĠCom": 3231,
      "etter": 3232,
      "Ġhu": 3233,
      "Ġinterview": 3234,
      "iversif": 3235,
      "Ġconver": 3236,
      "ä½łçļĦåĲįåŃĹ": 3237,
      "åĵªéĩĮ": 3238,
      "èĤ¯": 3239,
      "Ġpred": 3240,
      "å¯¹AI": 3241,
      "èµĽ": 3242,
      "Ġspend": 3243,
      "ucial": 3244,
      "ilt": 3245,
      "æİ¢ç´": 3246,
      "Ġdead": 3247,
      "çĶŁæĪĲæ¨¡åŀĭçļĦ": 3248,
      "Ġaligns": 3249,
      "ä¼ĺåħĪ": 3250,
      "é«ĺæķĪ": 3251,
      "ä¸ĵä¸ļ": 3252,
      "åľ°æĸ¹": 3253,
      "Ġsteps": 3254,
      "witter": 3255,
      "ĠOpenAI": 3256,
      "Sup": 3257,
      "rid": 3258,
      "ĠY": 3259,
      "ership": 3260,
      "Ġmon": 3261,
      "Ġpassion": 3262,
      "Ġfour": 3263,
      "Ġfail": 3264,
      "Ġcre": 3265,
      "aly": 3266,
      "Ġreputation": 3267,
      "Ġsay": 3268,
      "entually": 3269,
      "Ġthought": 3270,
      "sional": 3271,
      "Ġforward": 3272,
      "icit": 3273,
      "åľ¨Zhihu": 3274,
      "ott": 3275,
      "ĠRe": 3276,
      "ĠSolid": 3277,
      "ä¸įå°ĳ": 3278,
      "èµļ": 3279,
      "åĮħ": 3280,
      "Ġcontinu": 3281,
      "æĿ¥èĩª": 3282,
      "æŀĦ": 3283,
      "Ġlearned": 3284,
      "æıĲåįĩ": 3285,
      "è®¤è¯Ĩ": 3286,
      "Ġbrings": 3287,
      "Ġgrounded": 3288,
      "medi": 3289,
      "èĤ¯å®ļ": 3290,
      "Flow": 3291,
      "Nice": 3292,
      "my": 3293,
      "ens": 3294,
      "Ġmin": 3295,
      "Ġpossi": 3296,
      "its": 3297,
      "ĠCon": 3298,
      "nderstand": 3299,
      "çłĶç©¶ä»Ģä¹Ī": 3300,
      "Ġinternational": 3301,
      "æİĴ": 3302,
      "Ġmove": 3303,
      "erned": 3304,
      "ä¿¡å": 3305,
      "ĠOn": 3306,
      "Ġreading": 3307,
      "Ġproducts": 3308,
      "Ġsubmis": 3309,
      "Ġbreakthrough": 3310,
      "Ġpublicly": 3311,
      "Ġreproducibility": 3312,
      "éļ¾": 3313,
      "Ġalongside": 3314,
      "Making": 3315,
      "pr": 3316,
      "paper": 3317,
      "¸Ĥ": 3318,
      "ä¾": 3319,
      "æ½": 3320,
      "ouch": 3321,
      "Ġtry": 3322,
      "Ġtouch": 3323,
      "lean": 3324,
      "enced": 3325,
      "Ġword": 3326,
      "unior": 3327,
      "åĴĮçĤĴèĤ¡": 3328,
      "åĴĮagentic": 3329,
      "romising": 3330,
      "åĵģ": 3331,
      "roud": 3332,
      "éĥ½å®ŀä¹łè¿ĩ": 3333,
      "osed": 3334,
      "çľĭæ³ķ": 3335,
      "eeper": 3336,
      "rained": 3337,
      "Ġregret": 3338,
      "Ġmatching": 3339,
      "Ġsafety": 3340,
      "è®¡ç®Ĺæľº": 3341,
      "èĤ¡å¸Ĥ": 3342,
      "Ġmetrics": 3343,
      "æİ¢ç´¢": 3344,
      "App": 3345,
      "len": 3346,
      "source": 3347,
      "ĠâĢĶ": 3348,
      "ĠQuality": 3349,
      "Ġaud": 3350,
      "Ġaiming": 3351,
      "Ġrej": 3352,
      "Ġbl": 3353,
      "2024": 3354,
      "advisor": 3355,
      "å®ŀè·": 3356,
      "Ġcompare": 3357,
      "Ġfocuses": 3358,
      "uccess": 3359,
      "å°±æĺ¯æĪĳ": 3360,
      "Ġfoundations": 3361,
      "Standard": 3362,
      "Ġpreferences": 3363,
      "ĠExc": 3364,
      "ĠInvesting": 3365,
      "ottlen": 3366,
      "å®ŀè·µ": 3367,
      "ottlenec": 3368,
      "Best": 3369,
      "Big": 3370,
      "Ch": 3371,
      "Great": 3372,
      "focus": 3373,
      "lity": 3374,
      "ood": 3375,
      "ove": 3376,
      "ªĴ": 3377,
      "åªĴ": 3378,
      "ats": 3379,
      "ellect": 3380,
      "çļĦå®ŀä¹ł": 3381,
      "ock": 3382,
      "iverse": 3383,
      "çĶ±": 3384,
      "åģļåĩº": 3385,
      "æĬĬ": 3386,
      "ä¸Ģç¯ĩ": 3387,
      "å¤ļåĲĹ": 3388,
      "æĭ¬": 3389,
      "èģĮä½į": 3390,
      "å¿Ļä»Ģä¹Ī": 3391,
      "åįĹå¤§æľ¬ç§ĳ": 3392,
      "Ġsimilar": 3393,
      "Ġbench": 3394,
      "Ġlatest": 3395,
      "Ġconfident": 3396,
      "åĮħæĭ¬": 3397,
      "ä¿¡å¿": 3398,
      "åªĴä½ĵ": 3399,
      "At": 3400,
      "Deep": 3401,
      "Seven": 3402,
      "ges": 3403,
      "gence": 3404,
      "ions": 3405,
      "pre": 3406,
      "way": 3407,
      "stage": 3408,
      "anks": 3409,
      "çļĦAI": 3410,
      "ict": 3411,
      "Ġvis": 3412,
      "æľĢåĸľæ¬¢": 3413,
      "Ġchec": 3414,
      "çļĦçłĶç©¶æĸ¹åĲĳ": 3415,
      "Ġnews": 3416,
      "Ġefficiently": 3417,
      "è¡Įä¸ļ": 3418,
      "Ġshipping": 3419,
      "çĽ®æłĩæĺ¯": 3420,
      "æ°´": 3421,
      "Ġconcentr": 3422,
      "å®ĮæĪĲ": 3423,
      "Unlikely": 3424,
      "Ġpowerful": 3425,
      "Ġdebugging": 3426,
      "Gener": 3427,
      "Pick": 3428,
      "duc": 3429,
      "lines": 3430,
      "ma": 3431,
      "yÃ¹n": 3432,
      "Ġdiversif": 3433,
      "chie": 3434,
      "Ġse": 3435,
      "Ġbottlenec": 3436,
      "ä¹ī": 3437,
      "atility": 3438,
      "Ġones": 3439,
      "æľīå¸®åĬ©": 3440,
      "Ġconsist": 3441,
      "Ġvide": 3442,
      "è¯¾": 3443,
      "æī©æķ£åĴĮ": 3444,
      "è¿ĺä¼ļ": 3445,
      "æĢİä¹ĪäºĨ": 3446,
      "å¤ļåªĴä½ĵ": 3447,
      "Ġintellect": 3448,
      "Ġmath": 3449,
      "Ġanaly": 3450,
      "çĲĨè®º": 3451,
      "Ġcapable": 3452,
      "what": 3453,
      "è¿Ļä¸ªæĸ¹åĲĳ": 3454,
      "åĲĮæĹ¶": 3455,
      "clud": 3456,
      "è§Ħæ¨¡": 3457,
      "Ġmeaningful": 3458,
      "Ġmotivated": 3459,
      "ustrial": 3460,
      "Ġexperiences": 3461,
      "Ġvideos": 3462,
      "tal": 3463,
      "¹éħį": 3464,
      "ĠâĨĴ": 3465,
      "ints": 3466,
      "Ġmassive": 3467,
      "Ġpure": 3468,
      "Ġproud": 3469,
      "Ġseveral": 3470,
      "Ġsuccess": 3471,
      "Ġob": 3472,
      "Ġec": 3473,
      "ective": 3474,
      "åıĭ": 3475,
      "ĠNo": 3476,
      "çłĶç©¶åĴĮ": 3477,
      "åģļçļĦ": 3478,
      "vision": 3479,
      "åĮ¹éħį": 3480,
      "éĹ¨": 3481,
      "eeing": 3482,
      "çĽ¸åħ³å·¥ä½ľ": 3483,
      "åĲİè®Ńç»ĥä¼ĺåĮĸ": 3484,
      "anced": 3485,
      "Ġprepar": 3486,
      "Ġtrajectories": 3487,
      "Ġenables": 3488,
      "Ġamb": 3489,
      "coming": 3490,
      "Ġtransform": 3491,
      "Ġperspective": 3492,
      "irectly": 3493,
      "Ġmonths": 3494,
      "ĠInternships": 3495,
      "zing": 3496,
      "Äģ": 3497,
      "çļĦåħ¬åı¸": 3498,
      "Ġtotal": 3499,
      "lement": 3500,
      "ationship": 3501,
      "ä»ĵ": 3502,
      "åľº": 3503,
      "åľ¨SIGGRAPH": 3504,
      "ote": 3505,
      "Ġconstantly": 3506,
      "mentor": 3507,
      "ular": 3508,
      "å·¥ä¸ļ": 3509,
      "Ġjunior": 3510,
      "ä¼ļçļĦ": 3511,
      "the": 3512,
      "Ġstrength": 3513,
      "Ġapplies": 3514,
      "Ġspace": 3515,
      "Ġshort": 3516,
      "å£°": 3517,
      "Ġkind": 3518,
      "essor": 3519,
      "å¿µ": 3520,
      "ä½ĨæĪĳ": 3521,
      "Ġlikely": 3522,
      "åĳĢ": 3523,
      "Ġplans": 3524,
      "Ġanything": 3525,
      "æ·±åħ¥": 3526,
      "é¦Ļæ¸¯ä¸Ńæĸĩå¤§åŃ¦MMLab": 3527,
      "æīĢå¤§åŃ¦": 3528,
      "æĦŁåħ´è¶£åĲĹ": 3529,
      "çĽ®æłĩæĺ¯ä»Ģä¹Ī": 3530,
      "Ġusers": 3531,
      "Multiple": 3532,
      "Ġpursuing": 3533,
      "Ġprofes": 3534,
      "åĺ¿": 3535,
      "ç«ŀäºī": 3536,
      "Plan": 3537,
      "blish": 3538,
      "ym": 3539,
      "year": 3540,
      "ç±": 3541,
      "Ġid": 3542,
      "stablish": 3543,
      "Ġtack": 3544,
      "Ġsame": 3545,
      "rapp": 3546,
      "ä½łåĳ¢": 3547,
      "Ġtool": 3548,
      "Ġgenu": 3549,
      "Ġluck": 3550,
      "åıĹ": 3551,
      "Ġmem": 3552,
      "æĪĳåı«æ±ªç¦ıè¿Ĳ": 3553,
      "Ġimplement": 3554,
      "Ġorg": 3555,
      "æľĢæľī": 3556,
      "aces": 3557,
      "Ġbets": 3558,
      "ä½łæľ¬ç§ĳæĺ¯": 3559,
      "Ġcommun": 3560,
      "Ġstrategies": 3561,
      "Ġpartic": 3562,
      "Ġtalent": 3563,
      "Ġnetworking": 3564,
      "å¹²ä»Ģä¹Ī": 3565,
      "Ġsecond": 3566,
      "Ġdesign": 3567,
      "Äģng": 3568,
      "Hard": 3569,
      "Was": 3570,
      "Ġend": 3571,
      "Ġsent": 3572,
      "rop": 3573,
      "ä½łä»Ģä¹ĪæĹ¶åĢĻ": 3574,
      "Ġgl": 3575,
      "icy": 3576,
      "Ġhe": 3577,
      "æĪĺ": 3578,
      "Ġcons": 3579,
      "Ġexec": 3580,
      "emp": 3581,
      "yth": 3582,
      "å®ŀä¹łåħ¬åı¸": 3583,
      "ired": 3584,
      "å°ĸ": 3585,
      "æİ§": 3586,
      "æ¯į": 3587,
      "åĵªä¸ªåŃ¦æł¡": 3588,
      "Ġstaying": 3589,
      "èĩªçĶ±": 3590,
      "é¡¶å°ĸ": 3591,
      "åĩłå¹´": 3592,
      "Ġfollowing": 3593,
      "Ġtraditional": 3594,
      "æīĢä»¥": 3595,
      "Ġacceleration": 3596,
      "ä½łçļĦçłĶç©¶æĸ¹åĲĳ": 3597,
      "Ġeleg": 3598,
      "Ġeducational": 3599,
      "èĭ±æĸĩåĲį": 3600,
      "Ġcrucial": 3601,
      "Ġdraws": 3602,
      "ĠLearned": 3603,
      "éĿŀå¸¸": 3604,
      "Be": 3605,
      "Possi": 3606,
      "Ġess": 3607,
      "Ġachie": 3608,
      "Ġinclud": 3609,
      "Ġwin": 3610,
      "çļĦåŃ¦çĶŁ": 3611,
      "ĠTwitter": 3612,
      "åģļAIçłĶç©¶": 3613,
      "Ġmay": 3614,
      "è¿ĺåı¯ä»¥": 3615,
      "æĬķç¨¿": 3616,
      "ances": 3617,
      "äºĭåĲĹ": 3618,
      "Ġstudying": 3619,
      "Ġprepr": 3620,
      "æĪĳçļĦçŃĸçķ¥": 3621,
      "åĽĽå¹´": 3622,
      "Ġpresence": 3623,
      "ä¹ĭä¸Ģ": 3624,
      "ology": 3625,
      "Ġseparate": 3626,
      "Ġdeadlines": 3627,
      "Early": 3628,
      "consistency": 3629,
      "iant": 3630,
      "å²": 3631,
      "çĮ": 3632,
      "Ġmid": 3633,
      "Ġsenior": 3634,
      "çļĦresearch": 3635,
      "Ġnegoti": 3636,
      "ĠAIèĤ¡": 3637,
      "Ġeff": 3638,
      "Ġevening": 3639,
      "oct": 3640,
      "æľīåĵªäºĽ": 3641,
      "ç»Ĩ": 3642,
      "æķ´": 3643,
      "ä½łçļĦåįļå£«": 3644,
      "Ġorig": 3645,
      "Ġplace": 3646,
      "å¤ļä¹ħ": 3647,
      "Ġquant": 3648,
      "Solid": 3649,
      "æĶ¯": 3650,
      "æµģåĮ¹éħį": 3651,
      "å®ŀä¹łè¿ĩåĲĹ": 3652,
      "åĽ½éĻħ": 3653,
      "Ġexcited": 3654,
      "Ġperfect": 3655,
      "Ġhobby": 3656,
      "Ġproductive": 3657,
      "æĪĸèĢħ": 3658,
      "Ġrelationship": 3659,
      "Ġtalk": 3660,
      "Ġiterate": 3661,
      "ï¼īï¼Į": 3662,
      "nov": 3663,
      "Ġbecame": 3664,
      "Ġdecision": 3665,
      "Ġnatural": 3666,
      "Ġempirical": 3667,
      "æļĤ": 3668,
      "Ġconvergence": 3669,
      "Ġaudience": 3670,
      "Ġorigin": 3671,
      "Balancing": 3672,
      "Right": 3673,
      "gres": 3674,
      "mit": 3675,
      "yo": 3676,
      "īä¸": 3677,
      "Ġdays": 3678,
      "ism": 3679,
      "Ġonly": 3680,
      "ationally": 3681,
      "Ġhonestly": 3682,
      "ĠMul": 3683,
      "æľīå½±åĵįåĬĽ": 3684,
      "Ġvar": 3685,
      "ĠWriting": 3686,
      "Ġimmedi": 3687,
      "å®ŀä¹łå¯¹": 3688,
      "ä¼ļèĢĥèĻĳ": 3689,
      "Ġcool": 3690,
      "åĮº": 3691,
      "other": 3692,
      "ributed": 3693,
      "ĠFocus": 3694,
      "å¦Ĥæŀľ": 3695,
      "Ġprimarily": 3696,
      "èº«ä»½": 3697,
      "å¯¼å¸Īæĺ¯è°ģ": 3698,
      "Ġprioriti": 3699,
      "One": 3700,
      "Ġperspectives": 3701,
      "è½¬": 3702,
      "Ġdata": 3703,
      "Ġplatform": 3704,
      "åĽłä¸º": 3705,
      "marks": 3706,
      "Ġclosely": 3707,
      "ä»£è¡¨ä½ľ": 3708,
      "Ġpossible": 3709,
      "Ġparticularly": 3710,
      "ython": 3711,
      "å²Ĺ": 3712,
      "Ind": 3713,
      "ML": 3714,
      "Re": 3715,
      "apt": 3716,
      "guid": 3717,
      "ystem": 3718,
      "èĸ": 3719,
      "Ġyoung": 3720,
      "Ġinnov": 3721,
      "Ġdestiny": 3722,
      "Ġbound": 3723,
      "Ġthing": 3724,
      "ä½łåģļè¿ĩ": 3725,
      "icks": 3726,
      "åľ¨çļĦ": 3727,
      "åįĪ": 3728,
      "å¤§åĲĹ": 3729,
      "Ġvol": 3730,
      "Ġpretty": 3731,
      "ä¸Ģä½ľ": 3732,
      "å¾Īå¼º": 3733,
      "Ġvisi": 3734,
      "æ¯ı": 3735,
      "Ġmater": 3736,
      "Ġlet": 3737,
      "ĠPretty": 3738,
      "umm": 3739,
      "ä¹Łæĺ¯": 3740,
      "ifferent": 3741,
      "ä¸Ńå¤§MMLab": 3742,
      "çĤĴèĤ¡åĲĹ": 3743,
      "ï¼ģ<|": 3744,
      "Ġdevelopment": 3745,
      "ç§°åĳ¼": 3746,
      "Ġvalidate": 3747,
      "ç²īä¸": 3748,
      "author": 3749,
      "å½ĵçĦ¶": 3750,
      "ç±»": 3751,
      "Ġsentence": 3752,
      "Ġglob": 3753,
      "èĸª": 3754,
      "ç²īä¸Ŀ": 3755,
      "Focused": 3756,
      "Main": 3757,
      "con": 3758,
      "trained": 3759,
      "ĠJ": 3760,
      "Ġra": 3761,
      "Ġtell": 3762,
      "Ġpromising": 3763,
      "Ġfac": 3764,
      "Ġiniti": 3765,
      "Ġwrapp": 3766,
      "chit": 3767,
      "Ġretraining": 3768,
      "æľĽ": 3769,
      "ä½łåİ»è¿ĩ": 3770,
      "ĠCan": 3771,
      "ä»Ĭ": 3772,
      "äº¤": 3773,
      "Ġestablish": 3774,
      "åıĸ": 3775,
      "Ġcond": 3776,
      "Ġext": 3777,
      "ĠLong": 3778,
      "æľĢåīįæ²¿": 3779,
      "iven": 3780,
      "çİĭ": 3781,
      "Ġintense": 3782,
      "Ġrob": 3783,
      "åı«æĪĳ": 3784,
      "Ġdepending": 3785,
      "Ġtakes": 3786,
      "æ¸¯ä¸ŃæĸĩMMLab": 3787,
      "åıĳè¡¨è¿ĩ": 3788,
      "Ġrun": 3789,
      "æĻºèĥ½ä½ĵAI": 3790,
      "ä¸ĭä¸Ģ": 3791,
      "åľ¨åĵªéĩĮ": 3792,
      "å·¥ä¸ļçķĮçłĶç©¶": 3793,
      "egr": 3794,
      "åŁºæľ¬": 3795,
      "èĩªå·±çļĦ": 3796,
      "Ġattract": 3797,
      "Ġclearly": 3798,
      "ï¼īãĢĤ<|": 3799,
      "Started": 3800,
      "Ġfeels": 3801,
      "æ·±åº¦åŃ¦ä¹ł": 3802,
      "Impro": 3803,
      "Ġmaintaining": 3804,
      "life": 3805,
      "AIæĺ¯æľªæĿ¥": 3806,
      "ĠProf": 3807,
      "riefly": 3808,
      "æ½ľ": 3809,
      "å¤ļåªĴä½ĵå®ŀéªĮå®¤": 3810,
      "Possibly": 3811,
      "guided": 3812,
      "Ġboundaries": 3813,
      "chitect": 3814,
      "ped": 3815,
      "ya": 3816,
      "»¡": 3817,
      "æ»¡": 3818,
      "éĽ": 3819,
      "İå¸Ĥ": 3820,
      "entif": 3821,
      "asc": 3822,
      "reet": 3823,
      "ater": 3824,
      "Ġcy": 3825,
      "Ġsel": 3826,
      "çļĦä¸ľè¥¿": 3827,
      "iter": 3828,
      "Ġoffici": 3829,
      "åľ¨MMLab": 3830,
      "åľ¨NeurIPS": 3831,
      "åıĪ": 3832,
      "è®²": 3833,
      "åĴĮçłĶç©¶": 3834,
      "åĴĮworld": 3835,
      "llish": 3836,
      "adth": 3837,
      "ĠBeen": 3838,
      "Ġprop": 3839,
      "è®ºæĸĩçļĦ": 3840,
      "è¿ĩç¨ĭ": 3841,
      "ization": 3842,
      "Ġoptimizing": 3843,
      "Ġintui": 3844,
      "Thanks": 3845,
      "åŁİå¸Ĥ": 3846,
      "Ġcommit": 3847,
      "æ¯ķä¸ļçļĦ": 3848,
      "Ġarchitect": 3849,
      "ĠGot": 3850,
      "Ġauthor": 3851,
      "Ġshape": 3852,
      "Ġfinanc": 3853,
      "Ġbreadth": 3854,
      "æİ¨çĲĨ": 3855,
      "åŃ¦åĪ°äºĨ": 3856,
      "Ġreflect": 3857,
      "åĽ¾åĥıåĪ°": 3858,
      "Adv": 3859,
      "æĻļä¸Ĭå¥½": 3860,
      "åħħå®ŀ": 3861,
      "åĿļæĮģ": 3862,
      "Ġcoursework": 3863,
      "nderstanding": 3864,
      "Ġbenchmarks": 3865,
      "An": 3866,
      "First": 3867,
      "Greet": 3868,
      "Occasionally": 3869,
      "Pr": 3870,
      "ction": 3871,
      "vant": 3872,
      "æį": 3873,
      "Ġtemp": 3874,
      "Ġinsp": 3875,
      "Ġdem": 3876,
      "Ġcred": 3877,
      "Ġcorrect": 3878,
      "Ġself": 3879,
      "Ġbud": 3880,
      "ĠAIçĽ¸åħ³": 3881,
      "åıª": 3882,
      "è®¨": 3883,
      "Ġunt": 3884,
      "ĠReal": 3885,
      "è¿ĩåĲĹ": 3886,
      "ä¸ŃåĽ½": 3887,
      "ä¸įåĲĮ": 3888,
      "åĲİæĤ": 3889,
      "æī©æķ£æ¨¡åŀĭä¼ĺåĮĸ": 3890,
      "çŁŃ": 3891,
      "åı«æĢĿæĤ¥": 3892,
      "æĽ´å¤ļ": 3893,
      "ĠFÃº": 3894,
      "åĵªä¸ªå¤§åŃ¦": 3895,
      "Work": 3896,
      "Introduce": 3897,
      "æ´ª": 3898,
      "æĶ¹åıĺ": 3899,
      "åĵªäºĽåħ¬åı¸": 3900,
      "Ġinfluenced": 3901,
      "ä¸Ģèĩ´æĢ§æ¨¡åŀĭçļĦ": 3902,
      "Ġsupervisor": 3903,
      "æ±Ĥè§£": 3904,
      "Ġbreaks": 3905,
      "Ġsupervises": 3906,
      "Ġdrives": 3907,
      "ç½ĳ": 3908,
      "æľ¬ç§ĳåľ¨åįĹäº¬å¤§åŃ¦": 3909,
      "æľīå¸®åĬ©åĲĹ": 3910,
      "çĮ®": 3911,
      "æ½ľåĬĽ": 3912,
      "Ġcyc": 3913,
      "Greetings": 3914,
      "wise": 3915,
      "è±": 3916,
      "èĪ": 3917,
      "ĺå£°": 3918,
      "Ġpinyin": 3919,
      "Ġcur": 3920,
      "Ġboo": 3921,
      "ä½łä»İ": 3922,
      "ä½łåıĳè¿ĩ": 3923,
      "leep": 3924,
      "æĺ¯åĵª": 3925,
      "ĠCurrently": 3926,
      "ä»»": 3927,
      "ets": 3928,
      "è®°": 3929,
      "Ġexist": 3930,
      "Ġcomput": 3931,
      "estern": 3932,
      "æĢĿè·¯": 3933,
      "å¼ĺå£°": 3934,
      "ractical": 3935,
      "Ġintroduce": 3936,
      "æĿİå¼ĺå£°": 3937,
      "lessing": 3938,
      "ä¸ļçķĮçłĶç©¶": 3939,
      "That": 3940,
      "ĠFocused": 3941,
      "Ġalma": 3942,
      "eav": 3943,
      "Ġgives": 3944,
      "è¿ĺæľīåħ¶ä»ĸ": 3945,
      "Ġcomplement": 3946,
      "Ġrelate": 3947,
      "istic": 3948,
      "Ġneeded": 3949,
      "æ°Ķ": 3950,
      "Ġenter": 3951,
      "è®©æĪĳ": 3952,
      "ĠWorking": 3953,
      "Ġpriority": 3954,
      "åĲĦæľī": 3955,
      "äº§åĵģ": 3956,
      "Ġsupportive": 3957,
      "ç©ºéĹ´": 3958,
      "Ġframework": 3959,
      "Ġprovided": 3960,
      "Ġpronou": 3961,
      "èµĽéģĵ": 3962,
      "èµļéĴ±": 3963,
      "è®¨è®º": 3964,
      "åĲİæĤĶ": 3965,
      "PyTorch": 3966,
      "Te": 3967,
      "less": 3968,
      "¡çĮ®": 3969,
      "¸å¼ķ": 3970,
      "ç¼": 3971,
      "image": 3972,
      "inci": 3973,
      "Ġfun": 3974,
      "çļĦæĺ¯ä»Ģä¹Ī": 3975,
      "Ġresp": 3976,
      "åĲ¸å¼ķ": 3977,
      "Ġhit": 3978,
      "åľ¨CUHK": 3979,
      "åħ±": 3980,
      "Ġinternationally": 3981,
      "åģļresearch": 3982,
      "Does": 3983,
      "ellig": 3984,
      "è¿ĺå¥½": 3985,
      "othing": 3986,
      "çľĭåĪ°": 3987,
      "Ġquick": 3988,
      "ĠEn": 3989,
      "Ġsolver": 3990,
      "Ġaccess": 3991,
      "çĽ¸åħ³çļĦå·¥ä½ľ": 3992,
      "çŁ¥ä¹İä¸Ĭ": 3993,
      "Ġafternoon": 3994,
      "è´¡çĮ®": 3995,
      "çĶ¨å¼ºåĮĸåŃ¦ä¹ł": 3996,
      "Ġearli": 3997,
      "Exc": 3998,
      "åĪĨäº«æĥ³æ³ķ": 3999,
      "Ġaccelerates": 4000,
      "ealth": 4001,
      "æ±ĤèģĮ": 4002,
      "Ġconnected": 4003,
      "Ġcombining": 4004,
      "Ġsmart": 4005,
      "åĢ¼å¾Ĺ": 4006,
      "cademic": 4007,
      "Ġemerging": 4008,
      "Ġengaged": 4009,
      "ormal": 4010,
      "ä¾¿": 4011,
      "æļĤæĹ¶": 4012,
      "Ġbuddy": 4013,
      "eavy": 4014,
      "Currently": 4015,
      "Fast": 4016,
      "ber": 4017,
      "yun": 4018,
      "ĽåĽ´": 4019,
      "stream": 4020,
      "Ġdoct": 4021,
      "çļĦMMLab": 4022,
      "ä½łæľĢè¿ĳ": 4023,
      "ä½łæľĢè¿ĳåľ¨": 4024,
      "ĠPapers": 4025,
      "åıį": 4026,
      "Ġexten": 4027,
      "ĠUS": 4028,
      "è¯Ŀ": 4029,
      "ĠStill": 4030,
      "è§Ī": 4031,
      "æľĢå¤§": 4032,
      "Ġprest": 4033,
      "èģĶç": 4034,
      "èĩªæĪĳ": 4035,
      "ooking": 4036,
      "ĠGP": 4037,
      "REVEéĥ½å®ŀä¹łè¿ĩ": 4038,
      "æ°ĽåĽ´": 4039,
      "éĢļå¸¸": 4040,
      "entral": 4041,
      "é¢Ħè§Ī": 4042,
      "Ġnaming": 4043,
      "Ġnames": 4044,
      "Ġclarify": 4045,
      "Likely": 4046,
      "Competitive": 4047,
      "Ġromanization": 4048,
      "Ġrejection": 4049,
      "Before": 4050,
      "Ġessential": 4051,
      "Ġestablished": 4052,
      "Prim": 4053,
      "Ġuntil": 4054,
      "bining": 4055,
      "brid": 4056,
      "ledge": 4057,
      "reci": 4058,
      "Ġmod": 4059,
      "Ġdiv": 4060,
      "Ġdeeper": 4061,
      "ä½łè·Ł": 4062,
      "AIèĤ¡": 4063,
      "level": 4064,
      "Ġhome": 4065,
      "æĢ»": 4066,
      "iversities": 4067,
      "energ": 4068,
      "ried": 4069,
      "åģļåįļå£«": 4070,
      "Ġbeats": 4071,
      "orts": 4072,
      "åİĭ": 4073,
      "ĠAGI": 4074,
      "è¯»è¿ĩ": 4075,
      "Ġuniversities": 4076,
      "Ġintegr": 4077,
      "å¹´çļĦ": 4078,
      "ä¼ĺåĬ¿": 4079,
      "ç¯ĩè®ºæĸĩ": 4080,
      "Three": 4081,
      "åĸ½": 4082,
      "Ġsched": 4083,
      "åģļä»Ģä¹ĪçłĶç©¶": 4084,
      "ä¸¤ä¸ª": 4085,
      "Ġtrading": 4086,
      "Ġfinal": 4087,
      "Ġhappy": 4088,
      "Ġchallenging": 4089,
      "åĵĪåĵĪ": 4090,
      "åĵĪåĸ½": 4091,
      "Ġusername": 4092,
      "Ġelse": 4093,
      "Ġsharp": 4094,
      "Ġeventually": 4095
    },
    "merges": [
      [
        "i",
        "m"
      ],
      [
        "<",
        "|"
      ],
      [
        "|",
        ">"
      ],
      [
        "s",
        "t"
      ],
      [
        "st",
        "a"
      ],
      [
        "e",
        "n"
      ],
      [
        "r",
        "t"
      ],
      [
        "en",
        "d"
      ],
      [
        "sta",
        "rt"
      ],
      [
        "e",
        "r"
      ],
      [
        "s",
        "i"
      ],
      [
        "i",
        "n"
      ],
      [
        "a",
        "s"
      ],
      [
        "u",
        "s"
      ],
      [
        "n",
        "t"
      ],
      [
        "o",
        "n"
      ],
      [
        "as",
        "si"
      ],
      [
        "us",
        "er"
      ],
      [
        "sta",
        "nt"
      ],
      [
        "|>",
        "<|"
      ],
      [
        "assi",
        "stant"
      ],
      [
        "Ġ",
        "a"
      ],
      [
        "o",
        "u"
      ],
      [
        "r",
        "e"
      ],
      [
        ".",
        "<|"
      ],
      [
        "?",
        "<|"
      ],
      [
        "a",
        "t"
      ],
      [
        "ï",
        "¼"
      ],
      [
        "Ġ",
        "t"
      ],
      [
        "Ġ",
        "m"
      ],
      [
        "in",
        "g"
      ],
      [
        "o",
        "r"
      ],
      [
        "Ġ",
        "y"
      ],
      [
        "Ġy",
        "ou"
      ],
      [
        "Ġ",
        "p"
      ],
      [
        "n",
        "d"
      ],
      [
        "Ġ",
        "f"
      ],
      [
        "a",
        "r"
      ],
      [
        "ã",
        "Ģ"
      ],
      [
        "Ġ",
        "in"
      ],
      [
        "Ġ",
        "d"
      ],
      [
        "Ġ",
        "w"
      ],
      [
        "e",
        "l"
      ],
      [
        "e",
        "s"
      ],
      [
        "Ġ",
        "c"
      ],
      [
        "ãĢ",
        "Ĥ"
      ],
      [
        "a",
        "l"
      ],
      [
        "e",
        "d"
      ],
      [
        "c",
        "h"
      ],
      [
        "Ġ",
        "re"
      ],
      [
        "o",
        "d"
      ],
      [
        "ãĢĤ",
        "<|"
      ],
      [
        "t",
        "i"
      ],
      [
        "a",
        "n"
      ],
      [
        "ä",
        "½"
      ],
      [
        "ï¼",
        "Į"
      ],
      [
        "ï¼",
        "Ł"
      ],
      [
        "ï¼Ł",
        "<|"
      ],
      [
        "ä",
        "¸"
      ],
      [
        "Ġ",
        "s"
      ],
      [
        "e",
        "ar"
      ],
      [
        "ļ",
        "Ħ"
      ],
      [
        "ç",
        "ļĦ"
      ],
      [
        "Ġa",
        "nd"
      ],
      [
        "i",
        "t"
      ],
      [
        "W",
        "h"
      ],
      [
        "f",
        "f"
      ],
      [
        "en",
        "t"
      ],
      [
        "Ġ",
        "b"
      ],
      [
        "Ġt",
        "h"
      ],
      [
        "r",
        "a"
      ],
      [
        "æ",
        "ľ"
      ],
      [
        "r",
        "o"
      ],
      [
        "si",
        "on"
      ],
      [
        "'",
        "s"
      ],
      [
        "ä",
        "¹"
      ],
      [
        "ear",
        "ch"
      ],
      [
        "i",
        "s"
      ],
      [
        "od",
        "el"
      ],
      [
        "o",
        "w"
      ],
      [
        "at",
        "i"
      ],
      [
        "Ġre",
        "s"
      ],
      [
        "ä½",
        "ł"
      ],
      [
        "å",
        "Ĳ"
      ],
      [
        "Ġyou",
        "r"
      ],
      [
        "i",
        "ff"
      ],
      [
        "Ġ",
        "on"
      ],
      [
        "Wh",
        "at"
      ],
      [
        "a",
        "b"
      ],
      [
        "Ġm",
        "odel"
      ],
      [
        "u",
        "sion"
      ],
      [
        "A",
        "I"
      ],
      [
        "iff",
        "usion"
      ],
      [
        "Ġres",
        "earch"
      ],
      [
        "Ġt",
        "o"
      ],
      [
        "è",
        "¿"
      ],
      [
        "v",
        "e"
      ],
      [
        "Ġ",
        "g"
      ],
      [
        "æ",
        "ĺ"
      ],
      [
        "l",
        "e"
      ],
      [
        "æĺ",
        "¯"
      ],
      [
        "Ġ",
        "C"
      ],
      [
        "t",
        "er"
      ],
      [
        "en",
        "c"
      ],
      [
        "Ġa",
        "t"
      ],
      [
        "Ġf",
        "or"
      ],
      [
        "Ġ",
        "I"
      ],
      [
        "i",
        "c"
      ],
      [
        "h",
        "i"
      ],
      [
        "on",
        "g"
      ],
      [
        "Ġ",
        "P"
      ],
      [
        "ati",
        "on"
      ],
      [
        "l",
        "y"
      ],
      [
        "Ġmodel",
        "s"
      ],
      [
        "o",
        "m"
      ],
      [
        "i",
        "d"
      ],
      [
        "Ġ",
        "n"
      ],
      [
        "Ġw",
        "or"
      ],
      [
        "Ġ",
        "o"
      ],
      [
        "Ġ",
        "l"
      ],
      [
        "v",
        "er"
      ],
      [
        "ä",
        "»"
      ],
      [
        "ä",
        "º"
      ],
      [
        "e",
        "t"
      ],
      [
        "Ġ",
        "AI"
      ],
      [
        "a",
        "m"
      ],
      [
        "å",
        "ľ"
      ],
      [
        "Ġ",
        "st"
      ],
      [
        "Ġ",
        "e"
      ],
      [
        "å",
        "¤"
      ],
      [
        "æ",
        "ĸ"
      ],
      [
        "h",
        "D"
      ],
      [
        "2",
        "0"
      ],
      [
        "ä¹",
        "Ī"
      ],
      [
        "e",
        "c"
      ],
      [
        "20",
        "2"
      ],
      [
        "Ġ",
        "h"
      ],
      [
        "åľ",
        "¨"
      ],
      [
        "H",
        "K"
      ],
      [
        "Ġ",
        "M"
      ],
      [
        "U",
        "HK"
      ],
      [
        "Ġth",
        "e"
      ],
      [
        "ti",
        "on"
      ],
      [
        "p",
        "er"
      ],
      [
        "u",
        "n"
      ],
      [
        "å",
        "Ń"
      ],
      [
        "o",
        "st"
      ],
      [
        "Ġ",
        "D"
      ],
      [
        "e",
        "p"
      ],
      [
        "o",
        "l"
      ],
      [
        "o",
        "c"
      ],
      [
        "Ġd",
        "iffusion"
      ],
      [
        "å",
        "ı"
      ],
      [
        "H",
        "ow"
      ],
      [
        "Ġ",
        "202"
      ],
      [
        "L",
        "ab"
      ],
      [
        "è",
        "®"
      ],
      [
        "Ġin",
        "ter"
      ],
      [
        "æľ",
        "ī"
      ],
      [
        "u",
        "t"
      ],
      [
        "å",
        "ħ"
      ],
      [
        "l",
        "d"
      ],
      [
        "in",
        "ing"
      ],
      [
        "ĠP",
        "hD"
      ],
      [
        "M",
        "Lab"
      ],
      [
        "åŃ",
        "¦"
      ],
      [
        "Ġm",
        "y"
      ],
      [
        "ä»",
        "Ģ"
      ],
      [
        "ä»Ģ",
        "ä¹Ī"
      ],
      [
        "å",
        "®"
      ],
      [
        "Ġ",
        "is"
      ],
      [
        "Ġ",
        "u"
      ],
      [
        "åĲ",
        "Ĺ"
      ],
      [
        "ra",
        "ining"
      ],
      [
        "å",
        "į"
      ],
      [
        "Ġwor",
        "k"
      ],
      [
        "Ġd",
        "o"
      ],
      [
        "ou",
        "t"
      ],
      [
        "æ",
        "Ī"
      ],
      [
        "Ġp",
        "a"
      ],
      [
        "u",
        "r"
      ],
      [
        "å¤",
        "§"
      ],
      [
        "â",
        "Ģ"
      ],
      [
        "âĢ",
        "Ķ"
      ],
      [
        "it",
        "h"
      ],
      [
        "Ķ",
        "ç"
      ],
      [
        "c",
        "e"
      ],
      [
        "t",
        "y"
      ],
      [
        "ç",
        "ł"
      ],
      [
        "enc",
        "y"
      ],
      [
        "H",
        "ong"
      ],
      [
        "Ġw",
        "ith"
      ],
      [
        "æ",
        "Ģ"
      ],
      [
        "å",
        "Ĵ"
      ],
      [
        "Ġc",
        "om"
      ],
      [
        "o",
        "t"
      ],
      [
        "nd",
        "er"
      ],
      [
        "am",
        "e"
      ],
      [
        "åĴ",
        "Į"
      ],
      [
        "¡",
        "å"
      ],
      [
        "æĸ",
        "ĩ"
      ],
      [
        "l",
        "l"
      ],
      [
        "Ġ",
        "N"
      ],
      [
        "i",
        "ver"
      ],
      [
        "ra",
        "d"
      ],
      [
        "u",
        "st"
      ],
      [
        "hi",
        "p"
      ],
      [
        "çł",
        "Ķç"
      ],
      [
        "©",
        "¶"
      ],
      [
        "çłĶç",
        "©¶"
      ],
      [
        "iver",
        "si"
      ],
      [
        "Ġpa",
        "per"
      ],
      [
        "en",
        "g"
      ],
      [
        "Ġc",
        "on"
      ],
      [
        "g",
        "h"
      ],
      [
        "e",
        "ep"
      ],
      [
        "t",
        "raining"
      ],
      [
        "Ġinter",
        "n"
      ],
      [
        "æ",
        "¨"
      ],
      [
        "en",
        "er"
      ],
      [
        "iversi",
        "ty"
      ],
      [
        "ç",
        "»"
      ],
      [
        "Ġe",
        "x"
      ],
      [
        "Ġa",
        "b"
      ],
      [
        "ro",
        "m"
      ],
      [
        "s",
        "hip"
      ],
      [
        "Ġ",
        "v"
      ],
      [
        "ĠC",
        "UHK"
      ],
      [
        "F",
        "u"
      ],
      [
        "si",
        "st"
      ],
      [
        "ŀ",
        "ĭ"
      ],
      [
        "Ġg",
        "ener"
      ],
      [
        "æ¨",
        "¡å"
      ],
      [
        "Ġu",
        "nder"
      ],
      [
        "æ¨¡å",
        "ŀĭ"
      ],
      [
        "a",
        "d"
      ],
      [
        "Ġ",
        "L"
      ],
      [
        "Ġab",
        "out"
      ],
      [
        "sist",
        "ency"
      ],
      [
        "in",
        "d"
      ],
      [
        "Ġm",
        "e"
      ],
      [
        "er",
        "e"
      ],
      [
        "Y",
        "un"
      ],
      [
        "m",
        "ent"
      ],
      [
        "Y",
        "es"
      ],
      [
        "Ġ",
        "U"
      ],
      [
        "Ġo",
        "f"
      ],
      [
        "ĥ",
        "½"
      ],
      [
        "Ġ",
        "W"
      ],
      [
        "an",
        "g"
      ],
      [
        "ãĢ",
        "ģ"
      ],
      [
        "ĠD",
        "iffusion"
      ],
      [
        "Ġ",
        "im"
      ],
      [
        "ti",
        "c"
      ],
      [
        "c",
        "t"
      ],
      [
        "å®",
        "ŀ"
      ],
      [
        "Ġp",
        "ost"
      ],
      [
        "æ",
        "±"
      ],
      [
        "ĠU",
        "n"
      ],
      [
        "ĠUn",
        "iversity"
      ],
      [
        "o",
        "re"
      ],
      [
        "å",
        "·"
      ],
      [
        "at",
        "e"
      ],
      [
        "ä",
        "¼"
      ],
      [
        "g",
        "e"
      ],
      [
        "s",
        "h"
      ],
      [
        "Ġ",
        "Hong"
      ],
      [
        "ĠM",
        "MLab"
      ],
      [
        "Ġ",
        "B"
      ],
      [
        "r",
        "y"
      ],
      [
        "è¿",
        "Ĳ"
      ],
      [
        "Ġn",
        "ame"
      ],
      [
        "an",
        "ce"
      ],
      [
        "h",
        "u"
      ],
      [
        "ç",
        "§"
      ],
      [
        "sh",
        "eng"
      ],
      [
        "ç",
        "¦"
      ],
      [
        "hi",
        "hu"
      ],
      [
        "Z",
        "hihu"
      ],
      [
        "Ġpaper",
        "s"
      ],
      [
        "it",
        "y"
      ],
      [
        "ç¦",
        "ı"
      ],
      [
        "Ġcom",
        "p"
      ],
      [
        "p",
        "t"
      ],
      [
        "Ġp",
        "ro"
      ],
      [
        "Ġintern",
        "ship"
      ],
      [
        "Ġ",
        "T"
      ],
      [
        "æ",
        "ī"
      ],
      [
        "G",
        "o"
      ],
      [
        "æ±",
        "ª"
      ],
      [
        "u",
        "l"
      ],
      [
        "r",
        "i"
      ],
      [
        "ç",
        "Ķ"
      ],
      [
        "ĠL",
        "i"
      ],
      [
        "e",
        "m"
      ],
      [
        "Ġ",
        "R"
      ],
      [
        "å",
        "¯"
      ],
      [
        "æ",
        "ķ"
      ],
      [
        "å",
        "ģ"
      ],
      [
        "å",
        "Ī"
      ],
      [
        "M",
        "ind"
      ],
      [
        "ä¹",
        "ł"
      ],
      [
        "æĪ",
        "ĳ"
      ],
      [
        "eep",
        "Mind"
      ],
      [
        "g",
        "rad"
      ],
      [
        "ust",
        "ry"
      ],
      [
        "å",
        "ĵ"
      ],
      [
        "ä½ł",
        "çļĦ"
      ],
      [
        "oc",
        "us"
      ],
      [
        "Ġa",
        "re"
      ],
      [
        "ç¦ı",
        "è¿Ĳ"
      ],
      [
        "åģ",
        "ļ"
      ],
      [
        "u",
        "b"
      ],
      [
        "u",
        "d"
      ],
      [
        "i",
        "ed"
      ],
      [
        "å·",
        "¥"
      ],
      [
        "è®",
        "º"
      ],
      [
        "p",
        "p"
      ],
      [
        "Ġa",
        "g"
      ],
      [
        "Ġim",
        "p"
      ],
      [
        "Ġwor",
        "ld"
      ],
      [
        "C",
        "UHK"
      ],
      [
        "enc",
        "e"
      ],
      [
        "è",
        "¯"
      ],
      [
        "Ġ",
        "or"
      ],
      [
        "j",
        "ing"
      ],
      [
        "al",
        "ly"
      ],
      [
        "å",
        "¾"
      ],
      [
        "ç§",
        "ĳ"
      ],
      [
        "Ġa",
        "c"
      ],
      [
        "ĠW",
        "ang"
      ],
      [
        "y",
        "t"
      ],
      [
        "an",
        "jing"
      ],
      [
        "ä½",
        "ľ"
      ],
      [
        "å¤§",
        "åŃ¦"
      ],
      [
        "C",
        "L"
      ],
      [
        "CL",
        "R"
      ],
      [
        "Ġb",
        "e"
      ],
      [
        "æľ",
        "¬"
      ],
      [
        "è®º",
        "æĸĩ"
      ],
      [
        "h",
        "in"
      ],
      [
        "Ġa",
        "d"
      ],
      [
        "D",
        "o"
      ],
      [
        "Ġ",
        "Zhihu"
      ],
      [
        "el",
        "l"
      ],
      [
        "e",
        "w"
      ],
      [
        "l",
        "ow"
      ],
      [
        "æ",
        "ł"
      ],
      [
        "Ġh",
        "a"
      ],
      [
        "ub",
        "l"
      ],
      [
        "Ġ",
        "S"
      ],
      [
        "ou",
        "r"
      ],
      [
        "ĠD",
        "eepMind"
      ],
      [
        "ati",
        "ve"
      ],
      [
        "id",
        "e"
      ],
      [
        "ä¸",
        "ļ"
      ],
      [
        "Ġin",
        "d"
      ],
      [
        "Ġb",
        "ut"
      ],
      [
        "Ġst",
        "ud"
      ],
      [
        "æľ¬",
        "ç§ĳ"
      ],
      [
        "Ġunder",
        "grad"
      ],
      [
        "ti",
        "f"
      ],
      [
        "æ±ª",
        "ç¦ıè¿Ĳ"
      ],
      [
        "q",
        "u"
      ],
      [
        "äº",
        "Ĩ"
      ],
      [
        "is",
        "h"
      ],
      [
        "å®ŀ",
        "ä¹ł"
      ],
      [
        "ç",
        "ķ"
      ],
      [
        "on",
        "sistency"
      ],
      [
        "æ",
        "Ŀ"
      ],
      [
        "Ġ",
        "j"
      ],
      [
        "e",
        "st"
      ],
      [
        "er",
        "s"
      ],
      [
        "es",
        "e"
      ],
      [
        "'",
        "m"
      ],
      [
        "o",
        "g"
      ],
      [
        "t",
        "s"
      ],
      [
        "v",
        "i"
      ],
      [
        "Ġg",
        "o"
      ],
      [
        "è",
        "§"
      ],
      [
        "r",
        "it"
      ],
      [
        "è",
        "¦"
      ],
      [
        "k",
        "s"
      ],
      [
        "è¦",
        "ģ"
      ],
      [
        "Ġ",
        "("
      ],
      [
        "ä¼",
        "ļ"
      ],
      [
        "çĶ",
        "Ł"
      ],
      [
        "åĵ",
        "ª"
      ],
      [
        "ç",
        "Ľ"
      ],
      [
        "Ġind",
        "ustry"
      ],
      [
        "Ġf",
        "ocus"
      ],
      [
        "è¿",
        "ĩ"
      ],
      [
        "M",
        "MLab"
      ],
      [
        "en",
        "tic"
      ],
      [
        "æľ",
        "Ģ"
      ],
      [
        "Ġt",
        "e"
      ],
      [
        "Ġad",
        "v"
      ],
      [
        "å",
        "¥"
      ],
      [
        "r",
        "ou"
      ],
      [
        "Ġm",
        "a"
      ],
      [
        "ve",
        "st"
      ],
      [
        "ä¸",
        "Ń"
      ],
      [
        "Ġp",
        "ubl"
      ],
      [
        "D",
        "ance"
      ],
      [
        "e",
        "Dance"
      ],
      [
        "è",
        "Ĥ"
      ],
      [
        "yt",
        "eDance"
      ],
      [
        "Ġf",
        "rom"
      ],
      [
        "l",
        "i"
      ],
      [
        "Ġp",
        "re"
      ],
      [
        "åį",
        "Ĺ"
      ],
      [
        "å",
        "Ĩ"
      ],
      [
        "i",
        "z"
      ],
      [
        "ĠHong",
        "sheng"
      ],
      [
        "P",
        "R"
      ],
      [
        "V",
        "PR"
      ],
      [
        "å¥",
        "½"
      ],
      [
        "å¯",
        "¹"
      ],
      [
        "n",
        "ing"
      ],
      [
        "Ġ",
        "Fu"
      ],
      [
        "æĸ",
        "¹"
      ],
      [
        "å·¥",
        "ä½ľ"
      ],
      [
        "tif",
        "ied"
      ],
      [
        "Ġin",
        "vest"
      ],
      [
        "e",
        "ur"
      ],
      [
        "æĢ",
        "Ŀ"
      ],
      [
        "hin",
        "ese"
      ],
      [
        "Ġc",
        "o"
      ],
      [
        "og",
        "le"
      ],
      [
        "Go",
        "ogle"
      ],
      [
        "a",
        "ge"
      ],
      [
        "t",
        "h"
      ],
      [
        "Ġw",
        "h"
      ],
      [
        "å",
        "¸"
      ],
      [
        "æķ",
        "£"
      ],
      [
        "Ġinternship",
        "s"
      ],
      [
        "å",
        "Ĭ"
      ],
      [
        "Ġgener",
        "ative"
      ],
      [
        "i",
        "es"
      ],
      [
        "I",
        "P"
      ],
      [
        "IP",
        "S"
      ],
      [
        "ec",
        "tified"
      ],
      [
        "æī",
        "©"
      ],
      [
        "k",
        "ing"
      ],
      [
        "Ġw",
        "rit"
      ],
      [
        "Ġst",
        "r"
      ],
      [
        "çķ",
        "Į"
      ],
      [
        "æī©",
        "æķ£"
      ],
      [
        "eur",
        "IPS"
      ],
      [
        "Ġag",
        "entic"
      ],
      [
        "as",
        "ed"
      ],
      [
        "o",
        "tion"
      ],
      [
        "è¿",
        "ĺ"
      ],
      [
        "å",
        "¹"
      ],
      [
        "æĢ",
        "İ"
      ],
      [
        "èĤ",
        "¡"
      ],
      [
        "é",
        "ĥ½"
      ],
      [
        "æ",
        "Ĭ"
      ],
      [
        "Ġd",
        "id"
      ],
      [
        "åħ",
        "³"
      ],
      [
        "a",
        "nt"
      ],
      [
        "ä¸",
        "Ģ"
      ],
      [
        "ä¸",
        "į"
      ],
      [
        "å¾",
        "Ī"
      ],
      [
        "A",
        "re"
      ],
      [
        "a",
        "y"
      ],
      [
        "i",
        "v"
      ],
      [
        "è",
        "ĥ½"
      ],
      [
        "Ġst",
        "oc"
      ],
      [
        "Ġl",
        "ab"
      ],
      [
        "f",
        "er"
      ],
      [
        "J",
        "U"
      ],
      [
        "e",
        "y"
      ],
      [
        "ç",
        "ľ"
      ],
      [
        "äº",
        "¬"
      ],
      [
        "u",
        "re"
      ],
      [
        "ä¸",
        "ª"
      ],
      [
        "n",
        "g"
      ],
      [
        "n",
        "y"
      ],
      [
        "o",
        "s"
      ],
      [
        "al",
        "l"
      ],
      [
        "Ġs",
        "y"
      ],
      [
        "åįĹ",
        "äº¬"
      ],
      [
        "i",
        "f"
      ],
      [
        "åį",
        "ļ"
      ],
      [
        "o",
        "rt"
      ],
      [
        "è",
        "µ"
      ],
      [
        "åĲ",
        "İ"
      ],
      [
        "is",
        "or"
      ],
      [
        "el",
        "y"
      ],
      [
        "R",
        "A"
      ],
      [
        "Ġgener",
        "ation"
      ],
      [
        "i",
        "re"
      ],
      [
        "G",
        "G"
      ],
      [
        "I",
        "GG"
      ],
      [
        "P",
        "H"
      ],
      [
        "ĠB",
        "yteDance"
      ],
      [
        "RA",
        "PH"
      ],
      [
        "IGG",
        "RAPH"
      ],
      [
        "æĺ¯",
        "ä»Ģä¹Ī"
      ],
      [
        "åı",
        "ĳ"
      ],
      [
        "Ġ202",
        "4"
      ],
      [
        "o",
        "b"
      ],
      [
        "Ġ202",
        "6"
      ],
      [
        "P",
        "O"
      ],
      [
        "å",
        "°"
      ],
      [
        "Ġstud",
        "ent"
      ],
      [
        "a",
        "c"
      ],
      [
        "é",
        "ĩ"
      ],
      [
        "è¿",
        "Ļ"
      ],
      [
        "ĠC",
        "onsistency"
      ],
      [
        "æ",
        "Ĥ"
      ],
      [
        "ec",
        "t"
      ],
      [
        "g",
        "n"
      ],
      [
        "åįĹäº¬",
        "å¤§åŃ¦"
      ],
      [
        "Ġha",
        "ve"
      ],
      [
        "å",
        "Ľ"
      ],
      [
        "p",
        "l"
      ],
      [
        "Ġa",
        "pp"
      ],
      [
        "æ",
        "Ĺ"
      ],
      [
        "D",
        "id"
      ],
      [
        "ic",
        "ation"
      ],
      [
        "Ġth",
        "at"
      ],
      [
        "st",
        "em"
      ],
      [
        "Ġs",
        "p"
      ],
      [
        "enc",
        "ent"
      ],
      [
        "E",
        "V"
      ],
      [
        "EV",
        "E"
      ],
      [
        "å",
        "Į"
      ],
      [
        "rom",
        "pt"
      ],
      [
        "æĢİ",
        "ä¹Ī"
      ],
      [
        "Ġco",
        "nt"
      ],
      [
        "æĪ",
        "Ĳ"
      ],
      [
        "æ",
        "³"
      ],
      [
        "ar",
        "d"
      ],
      [
        "é",
        "¢"
      ],
      [
        "Ġ",
        "it"
      ],
      [
        "æĤ",
        "¥"
      ],
      [
        "Ġ",
        "sta"
      ],
      [
        "i",
        "r"
      ],
      [
        "Ġsy",
        "stem"
      ],
      [
        "Ġs",
        "h"
      ],
      [
        "Ġl",
        "ear"
      ],
      [
        "æĢĿ",
        "æĤ¥"
      ],
      [
        "ot",
        "h"
      ],
      [
        "Ġc",
        "h"
      ],
      [
        "N",
        "PO"
      ],
      [
        "æī©æķ£",
        "æ¨¡åŀĭ"
      ],
      [
        "Ġ",
        "K"
      ],
      [
        "Ġw",
        "as"
      ],
      [
        "åĲ",
        "ĳ"
      ],
      [
        "Ġb",
        "et"
      ],
      [
        "c",
        "al"
      ],
      [
        "i",
        "ll"
      ],
      [
        "Ġp",
        "l"
      ],
      [
        "a",
        "re"
      ],
      [
        "a",
        "ct"
      ],
      [
        "å",
        "¼"
      ],
      [
        "Ġsystem",
        "s"
      ],
      [
        "P",
        "hD"
      ],
      [
        "in",
        "e"
      ],
      [
        "çľ",
        "ĭ"
      ],
      [
        "a",
        "ch"
      ],
      [
        "ic",
        "i"
      ],
      [
        "Ġcon",
        "sistency"
      ],
      [
        "ĠC",
        "hinese"
      ],
      [
        "an",
        "y"
      ],
      [
        "pt",
        "im"
      ],
      [
        "k",
        "e"
      ],
      [
        "ä¸",
        "»"
      ],
      [
        "o",
        "p"
      ],
      [
        "Ġadv",
        "isor"
      ],
      [
        "Ġ",
        "en"
      ],
      [
        "åĲ",
        "į"
      ],
      [
        "Ġte",
        "ch"
      ],
      [
        "ä½ł",
        "åľ¨"
      ],
      [
        "Ġ202",
        "5"
      ],
      [
        "ĠK",
        "ong"
      ],
      [
        "u",
        "c"
      ],
      [
        "ĠN",
        "anjing"
      ],
      [
        "å¤",
        "ļ"
      ],
      [
        "Ġex",
        "per"
      ],
      [
        "i",
        "l"
      ],
      [
        "ptim",
        "iz"
      ],
      [
        "b",
        "le"
      ],
      [
        "ff",
        "ici"
      ],
      [
        "gh",
        "t"
      ],
      [
        "æ",
        "İ"
      ],
      [
        "è",
        "¡"
      ],
      [
        "et",
        "h"
      ],
      [
        "æĸ¹",
        "åĲĳ"
      ],
      [
        "ĠI",
        "CLR"
      ],
      [
        "å",
        "İ"
      ],
      [
        "è",
        "Ģ"
      ],
      [
        "é",
        "Ĺ"
      ],
      [
        "!",
        "<|"
      ],
      [
        "h",
        "ased"
      ],
      [
        "ra",
        "c"
      ],
      [
        "ç",
        "İ"
      ],
      [
        "Ġto",
        "p"
      ],
      [
        "ĠT",
        "encent"
      ],
      [
        "Ġ",
        "A"
      ],
      [
        "Ġre",
        "al"
      ],
      [
        "vi",
        "ew"
      ],
      [
        "è¯",
        "»"
      ],
      [
        "Ġo",
        "ptimiz"
      ],
      [
        "é",
        "Ģ"
      ],
      [
        "I",
        "CLR"
      ],
      [
        "åĨ",
        "Ļ"
      ],
      [
        "e",
        "e"
      ],
      [
        "N",
        "anjing"
      ],
      [
        "å",
        "£"
      ],
      [
        "Ġm",
        "ore"
      ],
      [
        "al",
        "ity"
      ],
      [
        "ĠN",
        "JU"
      ],
      [
        "æĹ",
        "¶"
      ],
      [
        "ar",
        "k"
      ],
      [
        "Ġpubl",
        "ish"
      ],
      [
        "æ",
        "ĥ"
      ],
      [
        "om",
        "e"
      ],
      [
        "Ġv",
        "i"
      ],
      [
        "åĮ",
        "ĸ"
      ],
      [
        "ĠT",
        "h"
      ],
      [
        "Ġre",
        "c"
      ],
      [
        "Ġimp",
        "ro"
      ],
      [
        "Ġ",
        "qu"
      ],
      [
        "A",
        "ny"
      ],
      [
        "Ġinter",
        "est"
      ],
      [
        "ide",
        "o"
      ],
      [
        "æĬ",
        "ķ"
      ],
      [
        "Ġd",
        "ire"
      ],
      [
        "æ",
        "Ļ"
      ],
      [
        "ç",
        "¥"
      ],
      [
        "l",
        "ab"
      ],
      [
        "æ",
        "¸"
      ],
      [
        "ä¸»",
        "è¦ģ"
      ],
      [
        "Ġ",
        "un"
      ],
      [
        "ark",
        "et"
      ],
      [
        "re",
        "s"
      ],
      [
        "Ġ",
        "k"
      ],
      [
        "Ġin",
        "t"
      ],
      [
        "ç¥",
        "¨"
      ],
      [
        "èĤ¡",
        "ç¥¨"
      ],
      [
        "Ġd",
        "e"
      ],
      [
        "èµ",
        "Ħ"
      ],
      [
        "ol",
        "lab"
      ],
      [
        "å£",
        "«"
      ],
      [
        "Ġ",
        "as"
      ],
      [
        "åħ",
        "¬"
      ],
      [
        "a",
        "st"
      ],
      [
        "tion",
        "s"
      ],
      [
        "ollab",
        "or"
      ],
      [
        "ab",
        "le"
      ],
      [
        "Ġt",
        "im"
      ],
      [
        "åįļ",
        "å£«"
      ],
      [
        "æ",
        "¯"
      ],
      [
        "Ġe",
        "ffici"
      ],
      [
        "Ġf",
        "u"
      ],
      [
        "Hong",
        "sheng"
      ],
      [
        "Ġinvest",
        "ing"
      ],
      [
        "f",
        "or"
      ],
      [
        "Ġm",
        "arket"
      ],
      [
        "Ġf",
        "low"
      ],
      [
        "es",
        "s"
      ],
      [
        "åı",
        "¸"
      ],
      [
        "åħ¬",
        "åı¸"
      ],
      [
        "Ġgo",
        "od"
      ],
      [
        "Ġ",
        "ro"
      ],
      [
        "Ġ202",
        "7"
      ],
      [
        "å¹",
        "´"
      ],
      [
        "ĠC",
        "VPR"
      ],
      [
        "äº",
        "Ľ"
      ],
      [
        "w",
        "or"
      ],
      [
        "ti",
        "ve"
      ],
      [
        "S",
        "ol"
      ],
      [
        "i",
        "ence"
      ],
      [
        "Ġm",
        "ost"
      ],
      [
        "T",
        "ell"
      ],
      [
        "æĥ",
        "³"
      ],
      [
        "æ",
        "²"
      ],
      [
        "çĽ",
        "¸"
      ],
      [
        "Ġu",
        "p"
      ],
      [
        "ä½",
        "ĵ"
      ],
      [
        "Ġlear",
        "ning"
      ],
      [
        "æĿ",
        "İ"
      ],
      [
        "Ġstoc",
        "ks"
      ],
      [
        "Y",
        "our"
      ],
      [
        "Go",
        "od"
      ],
      [
        "æ¸",
        "¯"
      ],
      [
        "a",
        "p"
      ],
      [
        "é",
        "¡"
      ],
      [
        "Ġb",
        "y"
      ],
      [
        "åŃ",
        "Ĺ"
      ],
      [
        "rou",
        "gh"
      ],
      [
        "r",
        "od"
      ],
      [
        "si",
        "ng"
      ],
      [
        "Ġ",
        "E"
      ],
      [
        "çĶŁ",
        "æĪĲ"
      ],
      [
        "R",
        "L"
      ],
      [
        "å",
        "¿"
      ],
      [
        "Ġimp",
        "act"
      ],
      [
        "R",
        "ectified"
      ],
      [
        "Ġj",
        "ob"
      ],
      [
        "æł",
        "·"
      ],
      [
        "ç",
        "Ł"
      ],
      [
        "Ġa",
        "li"
      ],
      [
        "Ġm",
        "at"
      ],
      [
        "ou",
        "ld"
      ],
      [
        "ĠM",
        "odel"
      ],
      [
        "f",
        "ore"
      ],
      [
        "o",
        "us"
      ],
      [
        "è",
        "ĩ"
      ],
      [
        "ĠR",
        "EVE"
      ],
      [
        "å",
        "º"
      ],
      [
        "è®",
        "Ń"
      ],
      [
        "ç»",
        "ĥ"
      ],
      [
        "Ġs",
        "cal"
      ],
      [
        "è®Ń",
        "ç»ĥ"
      ],
      [
        "ou",
        "nd"
      ],
      [
        "Ġs",
        "ol"
      ],
      [
        "eth",
        "od"
      ],
      [
        "å°",
        "±"
      ],
      [
        "v",
        "ing"
      ],
      [
        "rompt",
        "RL"
      ],
      [
        "'",
        "t"
      ],
      [
        "Ġali",
        "gn"
      ],
      [
        "æĿ",
        "¥"
      ],
      [
        "Ġm",
        "ethod"
      ],
      [
        "ä¼",
        "ĺ"
      ],
      [
        "ä¸Ń",
        "æĸĩ"
      ],
      [
        "Sol",
        "ver"
      ],
      [
        "tic",
        "al"
      ],
      [
        "u",
        "i"
      ],
      [
        "ent",
        "s"
      ],
      [
        "ç",
        "Ĥ"
      ],
      [
        "Ġ",
        "le"
      ],
      [
        "e",
        "ed"
      ],
      [
        "ĠN",
        "eurIPS"
      ],
      [
        "å¸",
        "Ī"
      ],
      [
        "Ġc",
        "ollabor"
      ],
      [
        "Ġt",
        "raining"
      ],
      [
        "Ġqu",
        "ality"
      ],
      [
        "åı",
        "«"
      ],
      [
        "m",
        "s"
      ],
      [
        "¯",
        "ĩ"
      ],
      [
        "ç",
        "¯ĩ"
      ],
      [
        "a",
        "g"
      ],
      [
        "Ġth",
        "ere"
      ],
      [
        "çŁ",
        "¥"
      ],
      [
        "Ġbe",
        "fore"
      ],
      [
        "Ġm",
        "any"
      ],
      [
        "ad",
        "em"
      ],
      [
        "ĠS",
        "IGGRAPH"
      ],
      [
        "Ġac",
        "c"
      ],
      [
        "ĠP",
        "re"
      ],
      [
        "ç»",
        "ı"
      ],
      [
        "Ġstr",
        "ong"
      ],
      [
        "an",
        "ies"
      ],
      [
        "Ġoptimiz",
        "ation"
      ],
      [
        "å",
        "ĩ"
      ],
      [
        "Ġpro",
        "ble"
      ],
      [
        "fer",
        "ence"
      ],
      [
        "Ġbet",
        "ter"
      ],
      [
        "Ġ",
        "ide"
      ],
      [
        "l",
        "es"
      ],
      [
        "X",
        "iv"
      ],
      [
        "a",
        "in"
      ],
      [
        "ä½ł",
        "æľ¬ç§ĳ"
      ],
      [
        "æĬķ",
        "èµĦ"
      ],
      [
        "re",
        "at"
      ],
      [
        "ä¸ļ",
        "çķĮ"
      ],
      [
        "C",
        "VPR"
      ],
      [
        "i",
        "a"
      ],
      [
        "Ġcomp",
        "anies"
      ],
      [
        "i",
        "ch"
      ],
      [
        "ä¸",
        "º"
      ],
      [
        "N",
        "ot"
      ],
      [
        "u",
        "ate"
      ],
      [
        "at",
        "ed"
      ],
      [
        "Ġn",
        "ow"
      ],
      [
        "ui",
        "ld"
      ],
      [
        "ir",
        "st"
      ],
      [
        "e",
        "x"
      ],
      [
        "ä¹",
        "İ"
      ],
      [
        "æ",
        "Ķ"
      ],
      [
        "f",
        "ter"
      ],
      [
        "ä½",
        "Ĩ"
      ],
      [
        "Wh",
        "ich"
      ],
      [
        "ĸ",
        "çķĮ"
      ],
      [
        "ä¸",
        "ĸçķĮ"
      ],
      [
        "Ġth",
        "rough"
      ],
      [
        "N",
        "eurIPS"
      ],
      [
        "Ġ",
        "ri"
      ],
      [
        "Ġdo",
        "es"
      ],
      [
        "Ġwrit",
        "e"
      ],
      [
        "çĽ¸",
        "åħ³"
      ],
      [
        "æ³",
        "ķ"
      ],
      [
        "Ġtech",
        "n"
      ],
      [
        "Ġd",
        "ep"
      ],
      [
        "Ġwh",
        "ere"
      ],
      [
        "åĲİ",
        "è®Ńç»ĥ"
      ],
      [
        "T",
        "h"
      ],
      [
        "çŁ¥",
        "ä¹İ"
      ],
      [
        "t",
        "im"
      ],
      [
        "i",
        "g"
      ],
      [
        "ar",
        "g"
      ],
      [
        "è¿",
        "Ľ"
      ],
      [
        "m",
        "age"
      ],
      [
        "æľ",
        "Ł"
      ],
      [
        "åĪ",
        "°"
      ],
      [
        "Ġ",
        "start"
      ],
      [
        "å¯",
        "¼"
      ],
      [
        "åį",
        "ĩ"
      ],
      [
        "Ġg",
        "rad"
      ],
      [
        "Ġ",
        "out"
      ],
      [
        "Ġt",
        "r"
      ],
      [
        "é",
        "ª"
      ],
      [
        "ur",
        "ing"
      ],
      [
        "ä¸",
        "Ĭ"
      ],
      [
        "ac",
        "k"
      ],
      [
        "Ġexper",
        "ience"
      ],
      [
        "Wh",
        "ere"
      ],
      [
        "Ġo",
        "th"
      ],
      [
        "ri",
        "b"
      ],
      [
        "Ġa",
        "ll"
      ],
      [
        "çİ",
        "°"
      ],
      [
        "éª",
        "Į"
      ],
      [
        "ound",
        "ation"
      ],
      [
        "Ġp",
        "rac"
      ],
      [
        "Ġac",
        "adem"
      ],
      [
        "ç",
        "Ń"
      ],
      [
        "Ġc",
        "l"
      ],
      [
        "æ",
        "Ľ"
      ],
      [
        "Ġa",
        "fter"
      ],
      [
        "or",
        "y"
      ],
      [
        "Ġn",
        "ot"
      ],
      [
        "Ġd",
        "uring"
      ],
      [
        "Ġl",
        "i"
      ],
      [
        "Ġl",
        "ong"
      ],
      [
        "ĠR",
        "ectified"
      ],
      [
        "ä¸ĸçķĮ",
        "æ¨¡åŀĭ"
      ],
      [
        "å",
        "Ł"
      ],
      [
        "ou",
        "gh"
      ],
      [
        "Ġvi",
        "sion"
      ],
      [
        "arg",
        "et"
      ],
      [
        "å",
        "ĳ"
      ],
      [
        "æ",
        "Ħ"
      ],
      [
        "Ġv",
        "ideo"
      ],
      [
        "Ġpl",
        "an"
      ],
      [
        "Ġwrit",
        "ing"
      ],
      [
        "æĽ",
        "´"
      ],
      [
        "Ġth",
        "in"
      ],
      [
        "o",
        "y"
      ],
      [
        "Ġcom",
        "m"
      ],
      [
        "æĺ¯",
        "æĪĳ"
      ],
      [
        "H",
        "ey"
      ],
      [
        "g",
        "re"
      ],
      [
        "å",
        "ī"
      ],
      [
        "Ġ",
        "Google"
      ],
      [
        "Ġdire",
        "c"
      ],
      [
        "t",
        "ing"
      ],
      [
        "Ġt",
        "a"
      ],
      [
        "ication",
        "s"
      ],
      [
        "Ġ",
        "F"
      ],
      [
        "Ġma",
        "in"
      ],
      [
        "Ġa",
        "n"
      ],
      [
        "Ġwork",
        "ing"
      ],
      [
        "éĩ",
        "į"
      ],
      [
        "si",
        "d"
      ],
      [
        "ate",
        "g"
      ],
      [
        "ĠPre",
        "view"
      ],
      [
        "åĵª",
        "ä¸ª"
      ],
      [
        "P",
        "ost"
      ],
      [
        "en",
        "u"
      ],
      [
        "çĽ",
        "®"
      ],
      [
        "ĠI",
        "t"
      ],
      [
        "æ²",
        "¡"
      ],
      [
        "Ġf",
        "oundation"
      ],
      [
        "æĺ¯",
        "çļĦ"
      ],
      [
        "åī",
        "į"
      ],
      [
        "D",
        "iffusion"
      ],
      [
        "Ġs",
        "ee"
      ],
      [
        "Ġsta",
        "y"
      ],
      [
        "Ġeffici",
        "ency"
      ],
      [
        "f",
        "ul"
      ],
      [
        "Ġf",
        "ast"
      ],
      [
        "æł",
        "¡"
      ],
      [
        "Ġex",
        "p"
      ],
      [
        "S",
        "t"
      ],
      [
        "Ġmethod",
        "s"
      ],
      [
        "è¡",
        "¨"
      ],
      [
        "Ġstr",
        "ateg"
      ],
      [
        "ur",
        "r"
      ],
      [
        "Ġf",
        "irst"
      ],
      [
        "Ġpro",
        "g"
      ],
      [
        "æ",
        "µ"
      ],
      [
        "ä¼ĺ",
        "åĮĸ"
      ],
      [
        "el",
        "p"
      ],
      [
        "S",
        "IGGRAPH"
      ],
      [
        "Ġa",
        "l"
      ],
      [
        "p",
        "le"
      ],
      [
        "æ",
        "ĭ"
      ],
      [
        "es",
        "earch"
      ],
      [
        "¸",
        "¿"
      ],
      [
        "è",
        "¶"
      ],
      [
        "é",
        "¸¿"
      ],
      [
        "æĿİ",
        "é¸¿"
      ],
      [
        "æĿİé¸¿",
        "åįĩ"
      ],
      [
        "e",
        "a"
      ],
      [
        "åĪ",
        "Ĩ"
      ],
      [
        "è",
        "´"
      ],
      [
        "æ¯",
        "ķ"
      ],
      [
        "è",
        "ģ"
      ],
      [
        "æ¯ķ",
        "ä¸ļ"
      ],
      [
        "ic",
        "al"
      ],
      [
        "f",
        "low"
      ],
      [
        "u",
        "p"
      ],
      [
        "è",
        "·"
      ],
      [
        "I",
        "s"
      ],
      [
        "Ġm",
        "o"
      ],
      [
        "wor",
        "ld"
      ],
      [
        "Ġs",
        "ome"
      ],
      [
        "Wh",
        "y"
      ],
      [
        "èĩ",
        "ª"
      ],
      [
        "é¡",
        "¶"
      ],
      [
        "v",
        "el"
      ],
      [
        "202",
        "7"
      ],
      [
        "Ġlab",
        "s"
      ],
      [
        "urr",
        "ent"
      ],
      [
        "ç",
        "«"
      ],
      [
        "al",
        "s"
      ],
      [
        "ĠM",
        "otion"
      ],
      [
        "rod",
        "uc"
      ],
      [
        "u",
        "tion"
      ],
      [
        "if",
        "ic"
      ],
      [
        "ex",
        "t"
      ],
      [
        "N",
        "o"
      ],
      [
        "çļĦ",
        "çłĶç©¶"
      ],
      [
        "çĶ",
        "¨"
      ],
      [
        "å¯¼",
        "å¸Ī"
      ],
      [
        "Ġth",
        "an"
      ],
      [
        "Ġy",
        "ear"
      ],
      [
        "Ġ",
        "What"
      ],
      [
        "ation",
        "s"
      ],
      [
        "Ġstoc",
        "k"
      ],
      [
        "æľ",
        "¯"
      ],
      [
        "æ¸¯",
        "ä¸Ńæĸĩ"
      ],
      [
        ")",
        ","
      ],
      [
        "il",
        "ity"
      ],
      [
        "çİ°",
        "åľ¨"
      ],
      [
        "sta",
        "nd"
      ],
      [
        "åı",
        "¯"
      ],
      [
        "rou",
        "nd"
      ],
      [
        "ä½ł",
        "æĺ¯"
      ],
      [
        "Ġex",
        "c"
      ],
      [
        "p",
        "en"
      ],
      [
        "Ġb",
        "oth"
      ],
      [
        "i",
        "ly"
      ],
      [
        "æ",
        "Į"
      ],
      [
        "Ġw",
        "ant"
      ],
      [
        "Ġpro",
        "j"
      ],
      [
        "Ġmat",
        "ter"
      ],
      [
        "Ġh",
        "elp"
      ],
      [
        "Ġapp",
        "l"
      ],
      [
        "Ġpublish",
        "ed"
      ],
      [
        "a",
        "nd"
      ],
      [
        "h",
        "ing"
      ],
      [
        "v",
        "es"
      ],
      [
        "Ġa",
        "r"
      ],
      [
        "Ġj",
        "ust"
      ],
      [
        "Ġm",
        "ent"
      ],
      [
        "äº",
        "İ"
      ],
      [
        "Ġv",
        "enu"
      ],
      [
        "Ġtim",
        "e"
      ],
      [
        "M",
        "otion"
      ],
      [
        "éĹ",
        "´"
      ],
      [
        "s",
        "s"
      ],
      [
        "è",
        "Ĭ"
      ],
      [
        "Ġimpro",
        "ve"
      ],
      [
        "u",
        "m"
      ],
      [
        "Ġcont",
        "ro"
      ],
      [
        "Ġproble",
        "ms"
      ],
      [
        "si",
        "s"
      ],
      [
        "ic",
        "e"
      ],
      [
        "r",
        "on"
      ],
      [
        "å¾",
        "Ĺ"
      ],
      [
        "en",
        "ti"
      ],
      [
        "Ġc",
        "are"
      ],
      [
        "is",
        "c"
      ],
      [
        "ment",
        "s"
      ],
      [
        "æµ",
        "ģ"
      ],
      [
        "åŃ¦",
        "ä¹ł"
      ],
      [
        "Ġex",
        "pl"
      ],
      [
        "Ġ",
        "us"
      ],
      [
        "Ġt",
        "arget"
      ],
      [
        "Y",
        "ou"
      ],
      [
        "Ġli",
        "ke"
      ],
      [
        "er",
        "n"
      ],
      [
        "o",
        "o"
      ],
      [
        "æľī",
        "ä»Ģä¹Ī"
      ],
      [
        "Ġun",
        "iversity"
      ],
      [
        "çļĦ",
        "å·¥ä½ľ"
      ],
      [
        "Ġs",
        "o"
      ],
      [
        "Ġsp",
        "ec"
      ],
      [
        "æĻ",
        "º"
      ],
      [
        "è",
        "°"
      ],
      [
        "ic",
        "s"
      ],
      [
        "æĻº",
        "èĥ½"
      ],
      [
        "ç",
        "º"
      ],
      [
        "Ġdirec",
        "tion"
      ],
      [
        "é",
        "¦"
      ],
      [
        "ĠP",
        "hased"
      ],
      [
        "Ġm",
        "ul"
      ],
      [
        "or",
        "s"
      ],
      [
        "Ġscal",
        "e"
      ],
      [
        "Ġide",
        "as"
      ],
      [
        "ter",
        "m"
      ],
      [
        "å",
        "ķ"
      ],
      [
        "ç",
        "¨"
      ],
      [
        "ä¹",
        "Ł"
      ],
      [
        "åıĳ",
        "è¡¨"
      ],
      [
        "Ġprac",
        "tical"
      ],
      [
        "iff",
        "er"
      ],
      [
        "Ġfu",
        "nd"
      ],
      [
        "Ġp",
        "o"
      ],
      [
        "Ġd",
        "isc"
      ],
      [
        "æĸ",
        "°"
      ],
      [
        "å",
        "ĸ"
      ],
      [
        "'",
        "re"
      ],
      [
        "Ġ",
        "G"
      ],
      [
        "Ġon",
        "e"
      ],
      [
        "un",
        "ity"
      ],
      [
        "æ³",
        "¨"
      ],
      [
        "é",
        "Ļ"
      ],
      [
        "ĠB",
        "ut"
      ],
      [
        "uild",
        "ing"
      ],
      [
        "ra",
        "m"
      ],
      [
        "ç",
        "®"
      ],
      [
        "éĢ",
        "ī"
      ],
      [
        "èĬ",
        "Ĥ"
      ],
      [
        "Ġme",
        "an"
      ],
      [
        "è§",
        "Ĩ"
      ],
      [
        "Ġstrateg",
        "y"
      ],
      [
        "¦",
        "Ĥ"
      ],
      [
        "C",
        "onsistency"
      ],
      [
        "Ġ",
        "r"
      ],
      [
        "Ġw",
        "ell"
      ],
      [
        "è¶",
        "£"
      ],
      [
        "Ġn",
        "ext"
      ],
      [
        "on",
        "e"
      ],
      [
        "ä»",
        "¥"
      ],
      [
        "Ġbe",
        "en"
      ],
      [
        "æ",
        "¬"
      ],
      [
        "al",
        "u"
      ],
      [
        "for",
        "m"
      ],
      [
        "s",
        "e"
      ],
      [
        "nd",
        "ustry"
      ],
      [
        "Ġin",
        "f"
      ],
      [
        "ow",
        "n"
      ],
      [
        "am",
        "ent"
      ],
      [
        "ar",
        "y"
      ],
      [
        "Ġs",
        "am"
      ],
      [
        "i",
        "ti"
      ],
      [
        "Ġro",
        "les"
      ],
      [
        "åħ",
        "´"
      ],
      [
        "æĻºèĥ½",
        "ä½ĵ"
      ],
      [
        "Ġo",
        "ver"
      ],
      [
        "t",
        "ed"
      ],
      [
        "u",
        "ct"
      ],
      [
        "ic",
        "tion"
      ],
      [
        "åĬ",
        "Ľ"
      ],
      [
        "P",
        "hased"
      ],
      [
        "a",
        "ve"
      ],
      [
        "é¦",
        "Ļ"
      ],
      [
        "i",
        "al"
      ],
      [
        "v",
        "en"
      ],
      [
        "ç",
        "Ĳ"
      ],
      [
        "Ġe",
        "m"
      ],
      [
        "ec",
        "ts"
      ],
      [
        "å¼",
        "º"
      ],
      [
        "ĠM",
        "y"
      ],
      [
        "Ġunder",
        "stand"
      ],
      [
        "ä",
        "¿"
      ],
      [
        "ro",
        "ss"
      ],
      [
        "at",
        "ing"
      ],
      [
        "åĪ",
        "«"
      ],
      [
        "hin",
        "a"
      ],
      [
        "C",
        "hinese"
      ],
      [
        "ä¸",
        "ĭ"
      ],
      [
        "çĤ",
        "Ĵ"
      ],
      [
        "çĲ",
        "Ĩ"
      ],
      [
        "e",
        "ad"
      ],
      [
        "è¿",
        "ĳ"
      ],
      [
        "W",
        "or"
      ],
      [
        "Ġs",
        "ch"
      ],
      [
        "Ġfund",
        "ament"
      ],
      [
        "Ġ",
        "æĢĿæĤ¥"
      ],
      [
        "ĠI",
        "mage"
      ],
      [
        "ĠP",
        "romptRL"
      ],
      [
        "Ġint",
        "o"
      ],
      [
        "r",
        "ong"
      ],
      [
        "u",
        "ch"
      ],
      [
        "åħ´",
        "è¶£"
      ],
      [
        "R",
        "EVE"
      ],
      [
        "é",
        "Ķ"
      ],
      [
        "Ġc",
        "an"
      ],
      [
        "Ġ",
        "ear"
      ],
      [
        "ur",
        "n"
      ],
      [
        "Ġalign",
        "ment"
      ],
      [
        "Ġle",
        "ad"
      ],
      [
        "sid",
        "e"
      ],
      [
        "i",
        "qu"
      ],
      [
        "ĠC",
        "hina"
      ],
      [
        "W",
        "ill"
      ],
      [
        "Ġto",
        "o"
      ],
      [
        "éĩį",
        "è¦ģ"
      ],
      [
        ")",
        ".<|"
      ],
      [
        "v",
        "iction"
      ],
      [
        "Ġm",
        "uch"
      ],
      [
        "Ġte",
        "am"
      ],
      [
        "éĹ",
        "®"
      ],
      [
        "Ġc",
        "od"
      ],
      [
        "æĢ",
        "§"
      ],
      [
        "Ġcont",
        "rib"
      ],
      [
        "é",
        "ĺ"
      ],
      [
        "Ġoth",
        "er"
      ],
      [
        "Ġvenu",
        "es"
      ],
      [
        "å",
        "Ģ"
      ],
      [
        "Ġpa",
        "rt"
      ],
      [
        "Ġfocus",
        "ed"
      ],
      [
        "l",
        "oy"
      ],
      [
        "an",
        "c"
      ],
      [
        "äº",
        "ĭ"
      ],
      [
        "å®ŀä¹ł",
        "è¿ĩ"
      ],
      [
        "å",
        "¦Ĥ"
      ],
      [
        "Ġd",
        "iffer"
      ],
      [
        "Ġd",
        "eep"
      ],
      [
        "Ġb",
        "al"
      ],
      [
        "Ġag",
        "ents"
      ],
      [
        "Ġdep",
        "loy"
      ],
      [
        "Ġp",
        "rompt"
      ],
      [
        "D",
        "eepMind"
      ],
      [
        "äº",
        "º"
      ],
      [
        "os",
        "e"
      ],
      [
        "ĠConsistency",
        "Solver"
      ],
      [
        "w",
        "o"
      ],
      [
        "ç",
        "ī"
      ],
      [
        "ing",
        "s"
      ],
      [
        "Ġp",
        "e"
      ],
      [
        "e",
        "ti"
      ],
      [
        "é",
        "ķ"
      ],
      [
        "Ġ",
        "H"
      ],
      [
        "end",
        "s"
      ],
      [
        "åİ",
        "Ĩ"
      ],
      [
        "éķ",
        "¿"
      ],
      [
        "Ġs",
        "u"
      ],
      [
        "Ġg",
        "iv"
      ],
      [
        "æĸĩ",
        "ç«"
      ],
      [
        "æľĢ",
        "è¿ĳ"
      ],
      [
        "æĸĩç«",
        "ł"
      ],
      [
        "u",
        "ally"
      ],
      [
        "Ġin",
        "st"
      ],
      [
        "Ġar",
        "Xiv"
      ],
      [
        "j",
        "or"
      ],
      [
        "åĲ",
        "Ī"
      ],
      [
        "nder",
        "grad"
      ],
      [
        "è¿ĺ",
        "æľī"
      ],
      [
        "Ġpo",
        "si"
      ],
      [
        "a",
        "rt"
      ],
      [
        "å",
        "½"
      ],
      [
        "Ġfu",
        "ll"
      ],
      [
        "Ġ",
        "eng"
      ],
      [
        "Ġth",
        "ough"
      ],
      [
        "Ġcomp",
        "le"
      ],
      [
        "vi",
        "ron"
      ],
      [
        "æ¬",
        "¢"
      ],
      [
        "Ġha",
        "nd"
      ],
      [
        "Ġundergrad",
        "uate"
      ],
      [
        "Ġfast",
        "er"
      ],
      [
        "Ġh",
        "ow"
      ],
      [
        "ç»",
        "Ń"
      ],
      [
        "P",
        "romptRL"
      ],
      [
        "Ġa",
        "ny"
      ],
      [
        "åĽ",
        "½"
      ],
      [
        "Ġen",
        "viron"
      ],
      [
        "ä¸º",
        "ä»Ģä¹Ī"
      ],
      [
        "Consistency",
        "Solver"
      ],
      [
        "o",
        "ol"
      ],
      [
        "Ġm",
        "otion"
      ],
      [
        "åŃ¦",
        "æł¡"
      ],
      [
        "Ġac",
        "ross"
      ],
      [
        "è§",
        "£"
      ],
      [
        "Ġb",
        "ack"
      ],
      [
        "AI",
        "çłĶç©¶"
      ],
      [
        "Ġresearch",
        "ers"
      ],
      [
        "enc",
        "es"
      ],
      [
        "gre",
        "e"
      ],
      [
        "Ġdisc",
        "us"
      ],
      [
        "æ",
        "·"
      ],
      [
        "Ġthin",
        "king"
      ],
      [
        "pp",
        "ort"
      ],
      [
        "I",
        "t"
      ],
      [
        "N",
        "JU"
      ],
      [
        "æľ",
        "º"
      ],
      [
        "æ·",
        "±"
      ],
      [
        "åİ",
        "»"
      ],
      [
        "Ġ",
        "æ±ªç¦ıè¿Ĳ"
      ],
      [
        "Ġwh",
        "at"
      ],
      [
        "èĢ",
        "ĥ"
      ],
      [
        "åĸ",
        "ľ"
      ],
      [
        "p",
        "ec"
      ],
      [
        "Ġn",
        "ew"
      ],
      [
        "Ġma",
        "jor"
      ],
      [
        "ay",
        "s"
      ],
      [
        "Ġde",
        "gree"
      ],
      [
        "A",
        "ll"
      ],
      [
        "k",
        "es"
      ],
      [
        "ic",
        "k"
      ],
      [
        "æ",
        "ŀ"
      ],
      [
        "åĲį",
        "åŃĹ"
      ],
      [
        "è¯»",
        "åįļ"
      ],
      [
        "res",
        "earch"
      ],
      [
        "åŃĹ",
        "èĬĤ"
      ],
      [
        "Ġri",
        "ght"
      ],
      [
        "æ",
        "Ń"
      ],
      [
        "Ġin",
        "si"
      ],
      [
        "Ġyear",
        "s"
      ],
      [
        "Ġbal",
        "ance"
      ],
      [
        "«",
        "ĺ"
      ],
      [
        "é",
        "«ĺ"
      ],
      [
        "Ġdo",
        "ing"
      ],
      [
        "ä¸Ń",
        "å¤§"
      ],
      [
        "åĸľ",
        "æ¬¢"
      ],
      [
        "Ġc",
        "urrent"
      ],
      [
        "è§",
        "ī"
      ],
      [
        "I",
        "nt"
      ],
      [
        "æľ",
        "ª"
      ],
      [
        "Ġcon",
        "n"
      ],
      [
        "æķ",
        "Ļ"
      ],
      [
        "é¢",
        "ĺ"
      ],
      [
        "t",
        "en"
      ],
      [
        "ä½",
        "į"
      ],
      [
        "Ġment",
        "or"
      ],
      [
        "Ġsch",
        "ool"
      ],
      [
        "g",
        "or"
      ],
      [
        "Ġ",
        "hi"
      ],
      [
        "ti",
        "v"
      ],
      [
        "gh",
        "ts"
      ],
      [
        "Ġapp",
        "ro"
      ],
      [
        "ĠTh",
        "at"
      ],
      [
        "Ġw",
        "hi"
      ],
      [
        "æ¨¡åŀĭ",
        "çļĦ"
      ],
      [
        "è¯",
        "´"
      ],
      [
        "y",
        "p"
      ],
      [
        "Ġo",
        "ff"
      ],
      [
        "Ġdire",
        "ct"
      ],
      [
        "ç¨",
        "ĭ"
      ],
      [
        "çĤĴ",
        "èĤ¡"
      ],
      [
        "Ġ",
        "si"
      ],
      [
        "ç»ı",
        "åİĨ"
      ],
      [
        "Ġcare",
        "er"
      ],
      [
        "éĥ½",
        "æĺ¯"
      ],
      [
        "res",
        "s"
      ],
      [
        "Ġsol",
        "id"
      ],
      [
        "çĤ",
        "¹"
      ],
      [
        "l",
        "ish"
      ],
      [
        "Ġ",
        "Good"
      ],
      [
        "Ġcomp",
        "any"
      ],
      [
        "yt",
        "hing"
      ],
      [
        "Ġexc",
        "it"
      ],
      [
        "Ġinvest",
        "ment"
      ],
      [
        "Ġk",
        "eep"
      ],
      [
        "Ġta",
        "ke"
      ],
      [
        "Ġappro",
        "ach"
      ],
      [
        "åģļ",
        "ä»Ģä¹Ī"
      ],
      [
        "è¿Ļ",
        "äºĽ"
      ],
      [
        "ĠA",
        "l"
      ],
      [
        "p",
        "ut"
      ],
      [
        "el",
        "f"
      ],
      [
        "E",
        "ver"
      ],
      [
        "Ġgo",
        "ing"
      ],
      [
        "Ġt",
        "ra"
      ],
      [
        "pl",
        "ing"
      ],
      [
        "B",
        "yteDance"
      ],
      [
        "Ġn",
        "o"
      ],
      [
        "Ġim",
        "age"
      ],
      [
        "å®ŀ",
        "éªĮ"
      ],
      [
        "Ġcon",
        "viction"
      ],
      [
        "å¹",
        "³"
      ],
      [
        "Ġexper",
        "im"
      ],
      [
        "Ġcomm",
        "unity"
      ],
      [
        "Ġ",
        "if"
      ],
      [
        "ed",
        "ia"
      ],
      [
        "R",
        "esearch"
      ],
      [
        "çļĦ",
        "è®ºæĸĩ"
      ],
      [
        "é¢",
        "ĳ"
      ],
      [
        "Ġtechn",
        "ical"
      ],
      [
        "çŃ",
        "ĸ"
      ],
      [
        "æ²¡",
        "æľī"
      ],
      [
        "Ġproj",
        "ects"
      ],
      [
        "Ġtarget",
        "ing"
      ],
      [
        "ol",
        "low"
      ],
      [
        "Ġstud",
        "y"
      ],
      [
        "åº",
        "¦"
      ],
      [
        "Ġhand",
        "le"
      ],
      [
        "æľª",
        "æĿ¥"
      ],
      [
        "i",
        "e"
      ],
      [
        "t",
        "o"
      ],
      [
        "ar",
        "ly"
      ],
      [
        "ĠR",
        "L"
      ],
      [
        "Ġsam",
        "pling"
      ],
      [
        "in",
        "for"
      ],
      [
        "ĠS",
        "t"
      ],
      [
        "Ġgrad",
        "u"
      ],
      [
        "'",
        "ve"
      ],
      [
        "d",
        "iffusion"
      ],
      [
        "åĬ",
        "¨"
      ],
      [
        "ç",
        "¡"
      ],
      [
        "å®",
        "¶"
      ],
      [
        "å¼",
        "Ģ"
      ],
      [
        "Ġacc",
        "ep"
      ],
      [
        "eti",
        "tive"
      ],
      [
        "Ġgiv",
        "en"
      ],
      [
        "Ġinsi",
        "ghts"
      ],
      [
        "Ġa",
        "ut"
      ],
      [
        "Ġe",
        "ver"
      ],
      [
        "Ġpre",
        "p"
      ],
      [
        "el",
        "ine"
      ],
      [
        "ob",
        "b"
      ],
      [
        "Ġcontro",
        "l"
      ],
      [
        "è°",
        "ģ"
      ],
      [
        "Ġdeploy",
        "ment"
      ],
      [
        "j",
        "ect"
      ],
      [
        "Ġp",
        "ers"
      ],
      [
        "ed",
        "ge"
      ],
      [
        "æī",
        "¾"
      ],
      [
        "å°±",
        "æĺ¯"
      ],
      [
        "Ġb",
        "ig"
      ],
      [
        "Ġeffici",
        "ent"
      ],
      [
        "æĦ",
        "Ł"
      ],
      [
        "¾",
        "è®"
      ],
      [
        "at",
        "es"
      ],
      [
        "åħ",
        "·"
      ],
      [
        "Ġpre",
        "fer"
      ],
      [
        "U",
        "ndergrad"
      ],
      [
        "Ġw",
        "ill"
      ],
      [
        "Wh",
        "o"
      ],
      [
        "Ġth",
        "en"
      ],
      [
        "åľ¨",
        "åĵª"
      ],
      [
        "åħ",
        "¨"
      ],
      [
        "å·¥",
        "ä¸ļçķĮ"
      ],
      [
        "Ġro",
        "le"
      ],
      [
        "Ġacadem",
        "ia"
      ],
      [
        "J",
        "ust"
      ],
      [
        "s",
        "o"
      ],
      [
        "at",
        "h"
      ],
      [
        "Ġp",
        "er"
      ],
      [
        "ce",
        "ment"
      ],
      [
        "é¢",
        "Ĩ"
      ],
      [
        "Ġlear",
        "n"
      ],
      [
        "å",
        "±"
      ],
      [
        "Ġh",
        "obb"
      ],
      [
        "çī",
        "¹"
      ],
      [
        "b",
        "s"
      ],
      [
        "Ġ",
        "O"
      ],
      [
        "ar",
        "Xiv"
      ],
      [
        "ä½",
        "ķ"
      ],
      [
        "åĩ",
        "ł"
      ],
      [
        "Ġus",
        "e"
      ],
      [
        "Ġspec",
        "ific"
      ],
      [
        "Ġear",
        "ly"
      ],
      [
        "æ",
        "´"
      ],
      [
        "ä¸",
        "¤"
      ],
      [
        "Ġfor",
        "m"
      ],
      [
        "Ġl",
        "at"
      ],
      [
        "åĬ",
        "ł"
      ],
      [
        "c",
        "es"
      ],
      [
        "Ġs",
        "om"
      ],
      [
        "enti",
        "al"
      ],
      [
        "è§Ĩ",
        "é¢ĳ"
      ],
      [
        "Ġdiffer",
        "ent"
      ],
      [
        "Ġin",
        "ference"
      ],
      [
        "ä¸",
        "ĵ"
      ],
      [
        "Ġinterest",
        "ed"
      ],
      [
        "Ġappl",
        "ications"
      ],
      [
        "Ġw",
        "ould"
      ],
      [
        "åĪ",
        "Ľ"
      ],
      [
        "æĢİä¹Ī",
        "æł·"
      ],
      [
        "èĢ",
        "ħ"
      ],
      [
        "Ġinst",
        "it"
      ],
      [
        "çķ",
        "¥"
      ],
      [
        "Ġk",
        "n"
      ],
      [
        "æĶ",
        "¹"
      ],
      [
        "æĭ",
        "©"
      ],
      [
        "infor",
        "cement"
      ],
      [
        "åĳ",
        "¢"
      ],
      [
        "Ġprog",
        "ram"
      ],
      [
        "éĢī",
        "æĭ©"
      ],
      [
        "Ġf",
        "ollow"
      ],
      [
        "ra",
        "in"
      ],
      [
        "Ġsh",
        "ap"
      ],
      [
        "Ġc",
        "ap"
      ],
      [
        "Ġs",
        "c"
      ],
      [
        "ä»",
        "ĸ"
      ],
      [
        "Ġthe",
        "m"
      ],
      [
        "Ġinterest",
        "s"
      ],
      [
        "çŃĸ",
        "çķ¥"
      ],
      [
        "è",
        "ħ"
      ],
      [
        "ĠM",
        "L"
      ],
      [
        "æİ",
        "¥"
      ],
      [
        "I",
        "ndustry"
      ],
      [
        "W",
        "ang"
      ],
      [
        "b",
        "ased"
      ],
      [
        "åı«",
        "ä»Ģä¹Ī"
      ],
      [
        "å¦Ĥ",
        "ä½ķ"
      ],
      [
        "å",
        "§"
      ],
      [
        "is",
        "ed"
      ],
      [
        "e",
        "g"
      ],
      [
        "å¸",
        "¸"
      ],
      [
        "Ġri",
        "gor"
      ],
      [
        "¾è®",
        "¯"
      ],
      [
        "èħ",
        "¾è®¯"
      ],
      [
        "v",
        "ed"
      ],
      [
        "w",
        "ard"
      ],
      [
        "i",
        "er"
      ],
      [
        "åŃ¦",
        "æľ¯"
      ],
      [
        "op",
        "le"
      ],
      [
        "ĠTh",
        "e"
      ],
      [
        "æ¸¯ä¸Ńæĸĩ",
        "å¤§åŃ¦"
      ],
      [
        "is",
        "e"
      ],
      [
        "Ġtr",
        "an"
      ],
      [
        "éĶ",
        "Ļ"
      ],
      [
        "Ġpubl",
        "ication"
      ],
      [
        "åĨ",
        "ħ"
      ],
      [
        "æİ",
        "Ī"
      ],
      [
        "é¦Ļ",
        "æ¸¯ä¸Ńæĸĩå¤§åŃ¦"
      ],
      [
        "E",
        "x"
      ],
      [
        "äº",
        "«"
      ],
      [
        "Ġtechn",
        "iqu"
      ],
      [
        "æĦ",
        "ı"
      ],
      [
        "e",
        "en"
      ],
      [
        "ti",
        "ple"
      ],
      [
        "§",
        "ç»Ń"
      ],
      [
        "Ġthe",
        "sis"
      ],
      [
        "ç»",
        "§ç»Ń"
      ],
      [
        "åĵª",
        "äºĽ"
      ],
      [
        "çľĭ",
        "å¥½"
      ],
      [
        "a",
        "il"
      ],
      [
        "Ġp",
        "roduc"
      ],
      [
        "ut",
        "e"
      ],
      [
        "Ġimpro",
        "ving"
      ],
      [
        "åĪĨ",
        "äº«"
      ],
      [
        "èģ",
        "Į"
      ],
      [
        "çŃ",
        "ī"
      ],
      [
        "åŁ",
        "Ł"
      ],
      [
        "ea",
        "h"
      ],
      [
        "Ġf",
        "i"
      ],
      [
        "é¢Ĩ",
        "åŁŁ"
      ],
      [
        "Ġintern",
        "ed"
      ],
      [
        "Ġv",
        "alu"
      ],
      [
        "æĸ¹",
        "æ³ķ"
      ],
      [
        "æĬ",
        "Ģ"
      ],
      [
        "åħ³",
        "äºİ"
      ],
      [
        "æĻ",
        "¯"
      ],
      [
        "åĩ",
        "º"
      ],
      [
        "æķĻ",
        "æİĪ"
      ],
      [
        "çī¹",
        "åĪ«"
      ],
      [
        "u",
        "al"
      ],
      [
        "Ġa",
        "ct"
      ],
      [
        "è®",
        "®"
      ],
      [
        "åħ",
        "¥"
      ],
      [
        "b",
        "ility"
      ],
      [
        "l",
        "u"
      ],
      [
        "ä½ł",
        "å¯¹"
      ],
      [
        "çº",
        "§"
      ],
      [
        "Ġcod",
        "e"
      ],
      [
        "s",
        "elf"
      ],
      [
        "Wh",
        "en"
      ],
      [
        "æĪ",
        "ĸ"
      ],
      [
        "ä½łçļĦ",
        "è®ºæĸĩ"
      ],
      [
        "åįļå£«",
        "çĶŁ"
      ],
      [
        "æĥ³",
        "æ³ķ"
      ],
      [
        "Ġtra",
        "ject"
      ],
      [
        "Ġinstit",
        "ution"
      ],
      [
        "ç",
        "´"
      ],
      [
        "et",
        "wor"
      ],
      [
        "ng",
        "lish"
      ],
      [
        "å¿",
        "ĥ"
      ],
      [
        "Ġacadem",
        "ic"
      ],
      [
        "Ķ",
        "¨"
      ],
      [
        "Ġt",
        "rad"
      ],
      [
        "it",
        "e"
      ],
      [
        "å®",
        "¤"
      ],
      [
        "Ķç",
        "Ķ¨"
      ],
      [
        "Ġch",
        "o"
      ],
      [
        "æī©æķ£æ¨¡åŀĭ",
        "çļĦ"
      ],
      [
        "è¡",
        "Į"
      ],
      [
        "Ġstart",
        "up"
      ],
      [
        "M",
        "ost"
      ],
      [
        "b",
        "e"
      ],
      [
        "æ",
        "ı"
      ],
      [
        "Ġre",
        "l"
      ],
      [
        "sion",
        "s"
      ],
      [
        "ĠC",
        "S"
      ],
      [
        "åŁ",
        "º"
      ],
      [
        "i",
        "li"
      ],
      [
        "el",
        "er"
      ],
      [
        "el",
        "or"
      ],
      [
        "ä½ł",
        "æľī"
      ],
      [
        "éĩ",
        "Į"
      ],
      [
        "ach",
        "elor"
      ],
      [
        "åº",
        "ĶçĶ¨"
      ],
      [
        "ä¸į",
        "éĶĻ"
      ],
      [
        "all",
        "eng"
      ],
      [
        "å®",
        "ļ"
      ],
      [
        "Ġpubl",
        "ications"
      ],
      [
        "åķ",
        "Ĭ"
      ],
      [
        "éĹ®",
        "é¢ĺ"
      ],
      [
        "å®ŀéªĮ",
        "å®¤"
      ],
      [
        "i",
        "ous"
      ],
      [
        "Ġsp",
        "eed"
      ],
      [
        "çĶŁæĪĲ",
        "æ¨¡åŀĭ"
      ],
      [
        "a",
        "per"
      ],
      [
        "v",
        "ideo"
      ],
      [
        "Ġre",
        "ad"
      ],
      [
        "et",
        "im"
      ],
      [
        "Ġp",
        "us"
      ],
      [
        "oc",
        "u"
      ],
      [
        "æķ",
        "Ī"
      ],
      [
        "ocus",
        "ed"
      ],
      [
        "Ġwh",
        "en"
      ],
      [
        "æĢİä¹Ī",
        "çľĭ"
      ],
      [
        "Ġmatter",
        "s"
      ],
      [
        "Ġfundament",
        "als"
      ],
      [
        "Ġsi",
        "gn"
      ],
      [
        "Ġtechniqu",
        "es"
      ],
      [
        "er",
        "ing"
      ],
      [
        "Ġf",
        "in"
      ],
      [
        "ä»",
        "£"
      ],
      [
        "åħ",
        "¶"
      ],
      [
        "å°",
        "ĳ"
      ],
      [
        "æı",
        "Ĳ"
      ],
      [
        "Y",
        "eah"
      ],
      [
        "nt",
        "h"
      ],
      [
        "Ġcomp",
        "etitive"
      ],
      [
        "our",
        "ces"
      ],
      [
        "åħ·",
        "ä½ĵ"
      ],
      [
        "Ġre",
        "inforcement"
      ],
      [
        "é¡¶",
        "ä¼ļ"
      ],
      [
        "Ġunderstand",
        "ing"
      ],
      [
        "os",
        "ure"
      ],
      [
        "Ġsta",
        "nd"
      ],
      [
        "Ġenviron",
        "ment"
      ],
      [
        "Ġ",
        "You"
      ],
      [
        "ro",
        "nt"
      ],
      [
        "etim",
        "es"
      ],
      [
        "e",
        "f"
      ],
      [
        "t",
        "ty"
      ],
      [
        "ç",
        "Ī"
      ],
      [
        "am",
        "ily"
      ],
      [
        "Ġma",
        "kes"
      ],
      [
        "ĠE",
        "nglish"
      ],
      [
        "I",
        "mage"
      ],
      [
        "Ġb",
        "re"
      ],
      [
        "éĩ",
        "ı"
      ],
      [
        "éķ¿",
        "æľŁ"
      ],
      [
        "i",
        "st"
      ],
      [
        "in",
        "es"
      ],
      [
        "æī",
        "Ģ"
      ],
      [
        "å¿",
        "Ļ"
      ],
      [
        "H",
        "ave"
      ],
      [
        "a",
        "v"
      ],
      [
        "or",
        "ing"
      ],
      [
        "ge",
        "st"
      ],
      [
        "Ġacc",
        "eler"
      ],
      [
        "as",
        "on"
      ],
      [
        "el",
        "d"
      ],
      [
        "ä½ł",
        "æľĢ"
      ],
      [
        "Ġo",
        "pen"
      ],
      [
        "æĪĳ",
        "çļĦ"
      ],
      [
        "æł",
        "ĩ"
      ],
      [
        "w",
        "h"
      ],
      [
        "Ġf",
        "re"
      ],
      [
        "Ġg",
        "et"
      ],
      [
        "ut",
        "ure"
      ],
      [
        "ort",
        "ant"
      ],
      [
        "æĺ¯æĪĳ",
        "çļĦ"
      ],
      [
        "on",
        "om"
      ],
      [
        "Ġp",
        "r"
      ],
      [
        "Ġres",
        "ources"
      ],
      [
        "åŃ¦",
        "çĶŁ"
      ],
      [
        "Ġha",
        "pp"
      ],
      [
        "åįĹ",
        "å¤§"
      ],
      [
        "Ġpe",
        "ople"
      ],
      [
        "t",
        "e"
      ],
      [
        "el",
        "ie"
      ],
      [
        "åįĹäº¬å¤§åŃ¦",
        "æľ¬ç§ĳ"
      ],
      [
        "Ġch",
        "alleng"
      ],
      [
        "tim",
        "edia"
      ],
      [
        "Ġinf",
        "lu"
      ],
      [
        "Ġposi",
        "tions"
      ],
      [
        "Ġhobb",
        "ies"
      ],
      [
        "i",
        "ve"
      ],
      [
        "s",
        "u"
      ],
      [
        "on",
        "d"
      ],
      [
        "åı",
        "Ĭ"
      ],
      [
        "ut",
        "ting"
      ],
      [
        "Ġtr",
        "ends"
      ],
      [
        "Ġthin",
        "k"
      ],
      [
        "åı¯",
        "ä»¥"
      ],
      [
        "urn",
        "ame"
      ],
      [
        "è",
        "¾"
      ],
      [
        "Ġf",
        "ront"
      ],
      [
        "Ġh",
        "ard"
      ],
      [
        "è¿Ļ",
        "ä¸ª"
      ],
      [
        "Ġoth",
        "ers"
      ],
      [
        "Ġhi",
        "gh"
      ],
      [
        "æĦŁ",
        "åħ´è¶£"
      ],
      [
        "é",
        "Ĥ"
      ],
      [
        "åĲ",
        "§"
      ],
      [
        "å·",
        "±"
      ],
      [
        "Ġtim",
        "eline"
      ],
      [
        "èĩ",
        "´"
      ],
      [
        "èĩª",
        "å·±"
      ],
      [
        "ern",
        "ship"
      ],
      [
        "i",
        "ght"
      ],
      [
        "Ġexperim",
        "ents"
      ],
      [
        "w",
        "ays"
      ],
      [
        "at",
        "ch"
      ],
      [
        "Ġb",
        "uilding"
      ],
      [
        "rit",
        "ing"
      ],
      [
        "av",
        "or"
      ],
      [
        "H",
        "i"
      ],
      [
        "k",
        "ed"
      ],
      [
        "er",
        "y"
      ],
      [
        "Ġre",
        "ally"
      ],
      [
        "Ġg",
        "reat"
      ],
      [
        "ul",
        "arly"
      ],
      [
        "ä¸Ģ",
        "èĩ´"
      ],
      [
        "Ġstudent",
        "s"
      ],
      [
        "ç®",
        "Ĺ"
      ],
      [
        "è§ī",
        "å¾Ĺ"
      ],
      [
        "åľ",
        "°"
      ],
      [
        "ubl",
        "ish"
      ],
      [
        "tim",
        "e"
      ],
      [
        "åĢ",
        "Ļ"
      ],
      [
        "éĤ",
        "£"
      ],
      [
        "Ġt",
        "rac"
      ],
      [
        "Ġc",
        "utting"
      ],
      [
        "é¡",
        "¹"
      ],
      [
        "å±",
        "ķ"
      ],
      [
        "è",
        "Ļ"
      ],
      [
        "or",
        "ning"
      ],
      [
        "ĠAI",
        "èĤ¡ç¥¨"
      ],
      [
        "æĹ¶",
        "éĹ´"
      ],
      [
        "Ġrec",
        "ent"
      ],
      [
        "ä¸Ģèĩ´",
        "æĢ§"
      ],
      [
        "u",
        "id"
      ],
      [
        "Ġd",
        "on"
      ],
      [
        "Ġw",
        "ere"
      ],
      [
        "ation",
        "al"
      ],
      [
        "V",
        "ery"
      ],
      [
        "i",
        "o"
      ],
      [
        "æ",
        "¶"
      ],
      [
        "Ġb",
        "elie"
      ],
      [
        "ä»",
        "İ"
      ],
      [
        "ä½łçļĦ",
        "çłĶç©¶"
      ],
      [
        "º",
        "Ĳ"
      ],
      [
        "æ",
        "®"
      ],
      [
        "æ",
        "ºĲ"
      ],
      [
        "Ġre",
        "ason"
      ],
      [
        "Ġat",
        "t"
      ],
      [
        "åģļ",
        "çłĶç©¶"
      ],
      [
        "è¿ĺ",
        "æĺ¯"
      ],
      [
        "æĹ¶",
        "åĢĻ"
      ],
      [
        "Ġscal",
        "ing"
      ],
      [
        "æ´",
        "»"
      ],
      [
        "g",
        "round"
      ],
      [
        "Ġh",
        "as"
      ],
      [
        "Ġsh",
        "are"
      ],
      [
        "æĮ",
        "ģ"
      ],
      [
        "Ġt",
        "al"
      ],
      [
        "åĲ",
        "Į"
      ],
      [
        "Ġsh",
        "ould"
      ],
      [
        "Ġfi",
        "eld"
      ],
      [
        "Ġd",
        "ec"
      ],
      [
        "Ġyour",
        "self"
      ],
      [
        "Ġthe",
        "ory"
      ],
      [
        "åħ³",
        "æ³¨"
      ],
      [
        "æī©æķ£æ¨¡åŀĭ",
        "åĴĮ"
      ],
      [
        "Ġproble",
        "m"
      ],
      [
        "k",
        "ely"
      ],
      [
        "ar",
        "ac"
      ],
      [
        "od",
        "al"
      ],
      [
        "Ġn",
        "eed"
      ],
      [
        "ĠR",
        "esearch"
      ],
      [
        "åĵ",
        "į"
      ],
      [
        "ocu",
        "sing"
      ],
      [
        "Ġfront",
        "ier"
      ],
      [
        "arac",
        "ter"
      ],
      [
        "B",
        "oth"
      ],
      [
        "ti",
        "er"
      ],
      [
        "Ġs",
        "hip"
      ],
      [
        "Ġo",
        "pport"
      ],
      [
        "æİ",
        "¨"
      ],
      [
        "èĢ",
        "ģ"
      ],
      [
        "ul",
        "t"
      ],
      [
        "ul",
        "ts"
      ],
      [
        "ç»ı",
        "éªĮ"
      ],
      [
        "Th",
        "ey"
      ],
      [
        "æĬĢ",
        "æľ¯"
      ],
      [
        "C",
        "an"
      ],
      [
        "g",
        "ing"
      ],
      [
        "Ġre",
        "gre"
      ],
      [
        "ol",
        "ut"
      ],
      [
        "åŃ¦",
        "åĪ°"
      ],
      [
        "Ġsu",
        "per"
      ],
      [
        "æŃ",
        "£"
      ],
      [
        "Ġaccep",
        "ted"
      ],
      [
        "é¡¹",
        "çĽ®"
      ],
      [
        "æ®",
        "µ"
      ],
      [
        "olut",
        "ely"
      ],
      [
        "Ġf",
        "uture"
      ],
      [
        "Ġn",
        "etwor"
      ],
      [
        "Ġwith",
        "out"
      ],
      [
        "å¸",
        "®"
      ],
      [
        "Ġback",
        "ground"
      ],
      [
        "Ġdirect",
        "ly"
      ],
      [
        "æĶ¹",
        "è¿Ľ"
      ],
      [
        "çĪ",
        "±"
      ],
      [
        "avor",
        "ite"
      ],
      [
        "èĻ",
        "ĳ"
      ],
      [
        "é",
        "Ŀ"
      ],
      [
        "ow",
        "ard"
      ],
      [
        "rou",
        "p"
      ],
      [
        "Ġplan",
        "ning"
      ],
      [
        "çĽ®",
        "æłĩ"
      ],
      [
        "æ",
        "°"
      ],
      [
        "Ġb",
        "achelor"
      ],
      [
        "ĠB",
        "oth"
      ],
      [
        "Ġgrad",
        "uate"
      ],
      [
        "iti",
        "es"
      ],
      [
        "e",
        "al"
      ],
      [
        "Ġ",
        "How"
      ],
      [
        "Ġc",
        "ore"
      ],
      [
        "Ġres",
        "ults"
      ],
      [
        "å®ŀä¹ł",
        "ç»ıåİĨ"
      ],
      [
        "Ġpre",
        "ference"
      ],
      [
        "åĮĸ",
        "åŃ¦ä¹ł"
      ],
      [
        "Ġexp",
        "osure"
      ],
      [
        "å¼º",
        "åĮĸåŃ¦ä¹ł"
      ],
      [
        "³",
        "»"
      ],
      [
        "ag",
        "es"
      ],
      [
        "å½",
        "±"
      ],
      [
        "Ġkn",
        "ow"
      ],
      [
        "h",
        "y"
      ],
      [
        "p",
        "ost"
      ],
      [
        "u",
        "ter"
      ],
      [
        "er",
        "ious"
      ],
      [
        "Ġwork",
        "ed"
      ],
      [
        "éĢ",
        "Ł"
      ],
      [
        "Ġout",
        "put"
      ],
      [
        "A",
        "bs"
      ],
      [
        "c",
        "c"
      ],
      [
        "v",
        "isor"
      ],
      [
        "åĨĻ",
        "æĸĩç«ł"
      ],
      [
        "Ġshap",
        "ed"
      ],
      [
        "å½±",
        "åĵį"
      ],
      [
        "Abs",
        "olutely"
      ],
      [
        "as",
        "e"
      ],
      [
        "Ġch",
        "aracter"
      ],
      [
        "æŀ",
        "ľ"
      ],
      [
        ")",
        "."
      ],
      [
        "u",
        "ght"
      ],
      [
        "Ġy",
        "es"
      ],
      [
        "ar",
        "ge"
      ],
      [
        "çľ",
        "Ł"
      ],
      [
        "Ġit",
        "er"
      ],
      [
        "æ²",
        "¿"
      ],
      [
        "Ġcl",
        "ear"
      ],
      [
        "ĠG",
        "reat"
      ],
      [
        "èĢĥ",
        "èĻĳ"
      ],
      [
        "st",
        "r"
      ],
      [
        "Ġre",
        "p"
      ],
      [
        "Ġg",
        "roup"
      ],
      [
        "åĵ",
        "Ī"
      ],
      [
        "æĢİ",
        "æł·"
      ],
      [
        "if",
        "e"
      ],
      [
        "åıĳ",
        "è¿ĩ"
      ],
      [
        "Ġen",
        "ab"
      ],
      [
        "æ¯",
        "Ķ"
      ],
      [
        "P",
        "re"
      ],
      [
        "T",
        "encent"
      ],
      [
        "Ġd",
        "ay"
      ],
      [
        "ro",
        "ad"
      ],
      [
        "åīį",
        "æ²¿"
      ],
      [
        "é",
        "ģ"
      ],
      [
        "Ġf",
        "amily"
      ],
      [
        "å·¥",
        "ç¨ĭ"
      ],
      [
        "cal",
        "e"
      ],
      [
        "é¡¶",
        "çº§"
      ],
      [
        "Ġaut",
        "onom"
      ],
      [
        "i",
        "tion"
      ],
      [
        "Ġimp",
        "ortant"
      ],
      [
        "æĶ",
        "¶"
      ],
      [
        "tiv",
        "ely"
      ],
      [
        "è§Ĩé¢ĳ",
        "çĶŁæĪĲ"
      ],
      [
        "Ġtraject",
        "ory"
      ],
      [
        "Ġt",
        "oward"
      ],
      [
        "Ġexpl",
        "oring"
      ],
      [
        "¢",
        "éĺ"
      ],
      [
        "Ġ",
        "user"
      ],
      [
        "AI",
        "èĤ¡ç¥¨"
      ],
      [
        "æ±",
        "Ĥ"
      ],
      [
        "Ġthough",
        "ts"
      ],
      [
        "ad",
        "e"
      ],
      [
        "Ġadv",
        "ice"
      ],
      [
        "Ġ",
        "1"
      ],
      [
        "Ġt",
        "wo"
      ],
      [
        "Ġp",
        "ur"
      ],
      [
        "æľº",
        "ä¼ļ"
      ],
      [
        "Ġproduc",
        "tion"
      ],
      [
        "M",
        "ul"
      ],
      [
        "å",
        "»"
      ],
      [
        "Ġth",
        "ese"
      ],
      [
        "è¿ĺ",
        "åľ¨"
      ],
      [
        "åĽ",
        "¢éĺ"
      ],
      [
        "uct",
        "ure"
      ],
      [
        "åĽ¢éĺ",
        "Ł"
      ],
      [
        "Y",
        "o"
      ],
      [
        "or",
        "d"
      ],
      [
        "Ġresearch",
        "er"
      ],
      [
        "è®",
        "¤"
      ],
      [
        "è´",
        "¨"
      ],
      [
        "e",
        "el"
      ],
      [
        "m",
        "p"
      ],
      [
        "ç",
        "Ħ"
      ],
      [
        "re",
        "d"
      ],
      [
        "Ġs",
        "im"
      ],
      [
        "Ġs",
        "urname"
      ],
      [
        "Ġh",
        "ere"
      ],
      [
        "ĠDiffusion",
        "åĴĮ"
      ],
      [
        "Ġrec",
        "tif"
      ],
      [
        "Ġalign",
        "ed"
      ],
      [
        "ag",
        "entic"
      ],
      [
        "c",
        "l"
      ],
      [
        "ï¼",
        "Ī"
      ],
      [
        "ï¼",
        "ī"
      ],
      [
        "Ġl",
        "ife"
      ],
      [
        "Ġstand",
        "ard"
      ],
      [
        "C",
        "om"
      ],
      [
        "ab",
        "ly"
      ],
      [
        "ä¸Ńæĸĩ",
        "å¤§åŃ¦"
      ],
      [
        "çĪ±",
        "å¥½"
      ],
      [
        "i",
        "ally"
      ],
      [
        "Ġ",
        "el"
      ],
      [
        "Ġl",
        "oo"
      ],
      [
        "åĬ",
        "©"
      ],
      [
        "ti",
        "es"
      ],
      [
        "Ġs",
        "erious"
      ],
      [
        "Ġth",
        "is"
      ],
      [
        "ay",
        "be"
      ],
      [
        "fer",
        "ences"
      ],
      [
        "Ġsh",
        "ar"
      ],
      [
        "ä¿",
        "¡"
      ],
      [
        "ĠAl",
        "so"
      ],
      [
        "ä¸ĵ",
        "æ³¨"
      ],
      [
        "å»",
        "º"
      ],
      [
        "ro",
        "w"
      ],
      [
        "Ġno",
        "vel"
      ],
      [
        "ç¡",
        "Ģ"
      ],
      [
        "åŁº",
        "ç¡Ģ"
      ],
      [
        "Ġhapp",
        "en"
      ],
      [
        "Ġe",
        "v"
      ],
      [
        "Ġh",
        "yp"
      ],
      [
        "Ġpre",
        "view"
      ],
      [
        "åĽ",
        "¾"
      ],
      [
        "ĠE",
        "x"
      ],
      [
        "Ġmul",
        "tiple"
      ],
      [
        "Ġa",
        "m"
      ],
      [
        "Ġp",
        "ri"
      ],
      [
        "Ġf",
        "eed"
      ],
      [
        "Ġre",
        "g"
      ],
      [
        "æľī",
        "çļĦ"
      ],
      [
        "Ġadv",
        "ised"
      ],
      [
        "Ġwhi",
        "ch"
      ],
      [
        "åħ¶",
        "ä»ĸ"
      ],
      [
        "e",
        "ver"
      ],
      [
        "Ġp",
        "ath"
      ],
      [
        "Ġf",
        "ocusing"
      ],
      [
        "ab",
        "ility"
      ],
      [
        "æ¨",
        "¡"
      ],
      [
        "Ġlat",
        "er"
      ],
      [
        "å¸®",
        "åĬ©"
      ],
      [
        "Ġpur",
        "su"
      ],
      [
        "s",
        "cale"
      ],
      [
        "in",
        "y"
      ],
      [
        "Ġb",
        "r"
      ],
      [
        "ä½ł",
        "è§īå¾Ĺ"
      ],
      [
        "åģļ",
        "è¿ĩ"
      ],
      [
        "Ġpers",
        "on"
      ],
      [
        "Ġtrac",
        "k"
      ],
      [
        "Ġ",
        "2"
      ],
      [
        "Ġ",
        "ed"
      ],
      [
        "Ġc",
        "all"
      ],
      [
        "åı",
        "Ĥ"
      ],
      [
        "Ġcomp",
        "uter"
      ],
      [
        "our",
        "s"
      ],
      [
        "rod",
        "uct"
      ],
      [
        "Ġbre",
        "a"
      ],
      [
        "Ġp",
        "ort"
      ],
      [
        "Ġc",
        "ult"
      ],
      [
        "AI",
        "çĽ¸åħ³"
      ],
      [
        "Ġbe",
        "st"
      ],
      [
        "éĢ",
        "ļ"
      ],
      [
        "Ġeng",
        "ine"
      ],
      [
        "Ġgradu",
        "ation"
      ],
      [
        "å§",
        "ĵ"
      ],
      [
        "Ġpr",
        "im"
      ],
      [
        "è´¨",
        "éĩı"
      ],
      [
        "st",
        "rain"
      ],
      [
        "us",
        "y"
      ],
      [
        "re",
        "ad"
      ],
      [
        "åĴĮ",
        "æĻºèĥ½ä½ĵ"
      ],
      [
        "æĪĳ",
        "åľ¨"
      ],
      [
        "ä¸į",
        "æĺ¯"
      ],
      [
        "å¾Ī",
        "æľī"
      ],
      [
        "Ġta",
        "ught"
      ],
      [
        "St",
        "rong"
      ],
      [
        "Ġbig",
        "gest"
      ],
      [
        "f",
        "ol"
      ],
      [
        "i",
        "or"
      ],
      [
        "j",
        "oy"
      ],
      [
        "Ġj",
        "o"
      ],
      [
        "è§",
        "Ħ"
      ],
      [
        "éĥ½",
        "åľ¨"
      ],
      [
        "Ġimpact",
        "ful"
      ],
      [
        "Ġdiscus",
        "s"
      ],
      [
        "ĠDiffusionåĴĮ",
        "Diffusion"
      ],
      [
        "c",
        "ess"
      ],
      [
        "i",
        "bility"
      ],
      [
        "ç",
        "¬"
      ],
      [
        "å¤",
        "ª"
      ],
      [
        "Ġcon",
        "strain"
      ],
      [
        "æľŁ",
        "éĹ´"
      ],
      [
        "Ġprog",
        "ress"
      ],
      [
        "Ġimprove",
        "ments"
      ],
      [
        "ç´",
        "¯"
      ],
      [
        "u",
        "tions"
      ],
      [
        "as",
        "s"
      ],
      [
        "re",
        "am"
      ],
      [
        "at",
        "ors"
      ],
      [
        "ort",
        "un"
      ],
      [
        "æĹ",
        "©"
      ],
      [
        "æµģ",
        "æ¨¡åŀĭ"
      ],
      [
        "Ġbelie",
        "ve"
      ],
      [
        "w",
        "een"
      ],
      [
        "è",
        "İ"
      ],
      [
        "Ġ",
        "ent"
      ],
      [
        "ĠSt",
        "rong"
      ],
      [
        "Ġport",
        "fol"
      ],
      [
        "n",
        "o"
      ],
      [
        "on",
        "s"
      ],
      [
        "Ġa",
        "ff"
      ],
      [
        "Ġp",
        "roduct"
      ],
      [
        "ic",
        "ally"
      ],
      [
        "Ġl",
        "arge"
      ],
      [
        "Ġcon",
        "ferences"
      ],
      [
        "æĪĳ",
        "æĺ¯"
      ],
      [
        "vel",
        "op"
      ],
      [
        "Ġhelp",
        "s"
      ],
      [
        "éĻ",
        "ħ"
      ],
      [
        "Ġmean",
        "s"
      ],
      [
        "Ġconn",
        "ect"
      ],
      [
        "ä¸¤",
        "ç¯ĩ"
      ],
      [
        "aper",
        "s"
      ],
      [
        "èĢģ",
        "å¸Ī"
      ],
      [
        "èİ",
        "·"
      ],
      [
        "Ġre",
        "f"
      ],
      [
        "åħ",
        "Ī"
      ],
      [
        "ä¸Ģ",
        "ä¸ĭ"
      ],
      [
        "åĽ",
        "Ľ"
      ],
      [
        "Ġproj",
        "ect"
      ],
      [
        "Ġcult",
        "ure"
      ],
      [
        "n",
        "am"
      ],
      [
        "Ġs",
        "k"
      ],
      [
        "Ġb",
        "u"
      ],
      [
        "AI",
        "çļĦ"
      ],
      [
        "è¯",
        "·"
      ],
      [
        "Ġcl",
        "ar"
      ],
      [
        "åķ",
        "¥"
      ],
      [
        "pec",
        "ially"
      ],
      [
        "Ġoff",
        "ers"
      ],
      [
        "Ġportfol",
        "io"
      ],
      [
        "a",
        "ce"
      ],
      [
        "l",
        "ing"
      ],
      [
        "ç",
        "³»"
      ],
      [
        "ec",
        "tion"
      ],
      [
        "Ġk",
        "ey"
      ],
      [
        "Ġout",
        "side"
      ],
      [
        "è·",
        "Ł"
      ],
      [
        "ific",
        "ant"
      ],
      [
        "ç®",
        "Ģ"
      ],
      [
        "anc",
        "ing"
      ],
      [
        "Ġinflu",
        "ence"
      ],
      [
        "ublish",
        "ed"
      ],
      [
        "Ġed",
        "uc"
      ],
      [
        "b",
        "ack"
      ],
      [
        "è",
        "º"
      ],
      [
        "é",
        "ľ"
      ],
      [
        "Ġ",
        "own"
      ],
      [
        "ol",
        "d"
      ],
      [
        "ç§",
        "¯"
      ],
      [
        "å¾Ī",
        "å¤ļ"
      ],
      [
        "Ġso",
        "on"
      ],
      [
        "Ġinf",
        "ra"
      ],
      [
        "Ġcharacter",
        "s"
      ],
      [
        "h",
        "en"
      ],
      [
        "Ġ",
        "Lab"
      ],
      [
        "es",
        "c"
      ],
      [
        "es",
        "pecially"
      ],
      [
        "Ġs",
        "ect"
      ],
      [
        "Ġcon",
        "c"
      ],
      [
        "Ġpro",
        "f"
      ],
      [
        "åİ",
        "Ĥ"
      ],
      [
        "å",
        "Ŀ"
      ],
      [
        "é",
        "ĥ"
      ],
      [
        "ï¼",
        "ģ"
      ],
      [
        "Ġb",
        "ec"
      ],
      [
        "Ġg",
        "uid"
      ],
      [
        "æĺ¯",
        "ä½łçļĦ"
      ],
      [
        "å¤§",
        "åİĤ"
      ],
      [
        "Ġcom",
        "b"
      ],
      [
        "Ġteam",
        "s"
      ],
      [
        "str",
        "ucture"
      ],
      [
        "Ġconstrain",
        "ts"
      ],
      [
        "èº",
        "«"
      ],
      [
        "éĥ",
        "¨"
      ],
      [
        "'",
        "d"
      ],
      [
        "b",
        "ably"
      ],
      [
        "Ġl",
        "ess"
      ],
      [
        "è®ºæĸĩ",
        "åĲĹ"
      ],
      [
        "åĨ",
        "³"
      ],
      [
        "åıĳ",
        "å±ķ"
      ],
      [
        "è¯»",
        "çļĦ"
      ],
      [
        "Ġcollabor",
        "ators"
      ],
      [
        "åīį",
        "æĻ¯"
      ],
      [
        "åı¯",
        "èĥ½"
      ],
      [
        "Ġinfra",
        "structure"
      ],
      [
        "å",
        "ĥ"
      ],
      [
        "Ġm",
        "an"
      ],
      [
        "ed",
        "om"
      ],
      [
        "Ġs",
        "ub"
      ],
      [
        "ent",
        "r"
      ],
      [
        "Ġb",
        "uild"
      ],
      [
        "æī",
        "ĵ"
      ],
      [
        "åĥ",
        "ı"
      ],
      [
        "Ġ",
        "Just"
      ],
      [
        "Ġf",
        "ar"
      ],
      [
        "ç»",
        "ĵ"
      ],
      [
        "æł",
        "¸"
      ],
      [
        "Ġma",
        "ke"
      ],
      [
        "Ġcontro",
        "ll"
      ],
      [
        "o",
        "ff"
      ],
      [
        "u",
        "ff"
      ],
      [
        "ç",
        "Ŀ"
      ],
      [
        "Ġwork",
        "s"
      ],
      [
        "Ġv",
        "s"
      ],
      [
        "å¼",
        "ķ"
      ],
      [
        "Ġde",
        "velop"
      ],
      [
        "Ġprompt",
        "s"
      ],
      [
        "W",
        "riting"
      ],
      [
        "h",
        "a"
      ],
      [
        "l",
        "os"
      ],
      [
        "ĠI",
        "n"
      ],
      [
        "ĠI",
        "nt"
      ],
      [
        "ĠL",
        "et"
      ],
      [
        "ĠA",
        "ll"
      ],
      [
        "Ġoptimiz",
        "e"
      ],
      [
        "tim",
        "odal"
      ],
      [
        "ä¸ºä»Ģä¹Ī",
        "éĢīæĭ©"
      ],
      [
        "Ġwhi",
        "le"
      ],
      [
        "Ġexcit",
        "es"
      ],
      [
        "åĽ¾",
        "åĥı"
      ],
      [
        "Ġsect",
        "or"
      ],
      [
        "W",
        "ould"
      ],
      [
        "c",
        "i"
      ],
      [
        "c",
        "om"
      ],
      [
        "å",
        "Ĺ"
      ],
      [
        "si",
        "tion"
      ],
      [
        "ĠP",
        "ost"
      ],
      [
        "Ġst",
        "uff"
      ],
      [
        "Ġpre",
        "s"
      ],
      [
        "Ġrec",
        "ord"
      ],
      [
        "å¿",
        "«"
      ],
      [
        "Ġcollabor",
        "ate"
      ],
      [
        "æī¾",
        "å·¥ä½ľ"
      ],
      [
        "åĩł",
        "ç¯ĩ"
      ],
      [
        "M",
        "y"
      ],
      [
        "S",
        "ome"
      ],
      [
        "T",
        "wo"
      ],
      [
        "a",
        "king"
      ],
      [
        "¶",
        "æ®µ"
      ],
      [
        "ä¸",
        "ľ"
      ],
      [
        "è®",
        "©"
      ],
      [
        "è¿Ļ",
        "æĺ¯"
      ],
      [
        "æł¸",
        "å¿ĥ"
      ],
      [
        "å¯¼å¸Ī",
        "æĺ¯"
      ],
      [
        "Int",
        "ernship"
      ],
      [
        "Ġrectif",
        "ication"
      ],
      [
        "d",
        "y"
      ],
      [
        "¥",
        "¿"
      ],
      [
        "è",
        "¥¿"
      ],
      [
        "Ġ",
        "especially"
      ],
      [
        "Ġt",
        "as"
      ],
      [
        "Ġim",
        "ages"
      ],
      [
        "ç§",
        "°"
      ],
      [
        "ew",
        "or"
      ],
      [
        "Ġsol",
        "ving"
      ],
      [
        "esc",
        "rib"
      ],
      [
        "ä¸ľ",
        "è¥¿"
      ],
      [
        "e",
        "rt"
      ],
      [
        "å",
        "¢"
      ],
      [
        "çł",
        "Ķ"
      ],
      [
        "ĠW",
        "or"
      ],
      [
        "ang",
        "u"
      ],
      [
        "ell",
        "o"
      ],
      [
        "ä¸Ģ",
        "äºĽ"
      ],
      [
        "Ġem",
        "p"
      ],
      [
        "éĺ",
        "¶æ®µ"
      ],
      [
        "çĦ",
        "¶"
      ],
      [
        "escrib",
        "e"
      ],
      [
        "Ġcon",
        "f"
      ],
      [
        "ä½łçļĦ",
        "æľ¬ç§ĳ"
      ],
      [
        "æ¯ķä¸ļ",
        "åĲİ"
      ],
      [
        "å¹³",
        "è¡"
      ],
      [
        "Ġatt",
        "end"
      ],
      [
        "Ġpri",
        "or"
      ],
      [
        "ç§¯",
        "ç´¯"
      ],
      [
        "p",
        "ing"
      ],
      [
        "è",
        "ĭ"
      ],
      [
        "Ġp",
        "ot"
      ],
      [
        "al",
        "id"
      ],
      [
        "et",
        "ail"
      ],
      [
        "Ġst",
        "ep"
      ],
      [
        "¡å",
        "Ī"
      ],
      [
        "Ġbet",
        "ween"
      ],
      [
        "an",
        "iz"
      ],
      [
        "ä¸",
        "İ"
      ],
      [
        "Ġl",
        "oc"
      ],
      [
        "åŃ¦",
        "ä½į"
      ],
      [
        "Ġu",
        "sing"
      ],
      [
        "å¤§",
        "çļĦ"
      ],
      [
        "æĢ",
        "ģ"
      ],
      [
        "ell",
        "ent"
      ],
      [
        "ä¼ļ",
        "è®®"
      ],
      [
        "Th",
        "e"
      ],
      [
        "Ġever",
        "ything"
      ],
      [
        "Ġfre",
        "edom"
      ],
      [
        "y",
        "nam"
      ],
      [
        "on",
        "est"
      ],
      [
        "Ġd",
        "ynam"
      ],
      [
        "ä¹",
        "ĭ"
      ],
      [
        "Ġg",
        "ot"
      ],
      [
        "å¾",
        "ħ"
      ],
      [
        "çĽ",
        "´"
      ],
      [
        "op",
        "e"
      ],
      [
        "Ġdep",
        "th"
      ],
      [
        "Ġoutput",
        "s"
      ],
      [
        "O",
        "n"
      ],
      [
        "P",
        "ro"
      ],
      [
        "u",
        "g"
      ],
      [
        "Ġ",
        "æ±ª"
      ],
      [
        "Ġst",
        "ill"
      ],
      [
        "åĴ",
        "ĭ"
      ],
      [
        "os",
        "si"
      ],
      [
        "Ġen",
        "joy"
      ],
      [
        "Ġprep",
        "are"
      ],
      [
        "Ġfeed",
        "back"
      ],
      [
        "ortun",
        "e"
      ],
      [
        "N",
        "ame"
      ],
      [
        "S",
        "om"
      ],
      [
        "f",
        "ocused"
      ],
      [
        "l",
        "ine"
      ],
      [
        "å®",
        "ī"
      ],
      [
        "å¤ļ",
        "å°ĳ"
      ],
      [
        "St",
        "art"
      ],
      [
        "è¿ĻäºĽ",
        "åħ¬åı¸"
      ],
      [
        "I",
        "D"
      ],
      [
        "Ġf",
        "eel"
      ],
      [
        "hi",
        "los"
      ],
      [
        "ä»",
        "ĭ"
      ],
      [
        "ec",
        "tions"
      ],
      [
        "Ġen",
        "ough"
      ],
      [
        "Ġmost",
        "ly"
      ],
      [
        "Ġmean",
        "ing"
      ],
      [
        "Ġsk",
        "ill"
      ],
      [
        "hilos",
        "op"
      ],
      [
        "i",
        "ble"
      ],
      [
        "Ġp",
        "hilosop"
      ],
      [
        "ti",
        "ll"
      ],
      [
        "it",
        "ed"
      ],
      [
        "Ġmodel",
        "ing"
      ],
      [
        "Ġe",
        "ach"
      ],
      [
        "å¥½",
        "çļĦ"
      ],
      [
        "å¹",
        "²"
      ],
      [
        "Ġpus",
        "h"
      ],
      [
        "Ġsign",
        "ificant"
      ],
      [
        "æ¶",
        "ī"
      ],
      [
        "Ġregre",
        "ts"
      ],
      [
        "F",
        "our"
      ],
      [
        "h",
        "or"
      ],
      [
        "Ġ",
        "5"
      ],
      [
        "im",
        "ing"
      ],
      [
        "Ġb",
        "road"
      ],
      [
        "le",
        "ct"
      ],
      [
        "Ġapp",
        "ly"
      ],
      [
        "eth",
        "ing"
      ],
      [
        "çİ",
        "ĩ"
      ],
      [
        "Ġtran",
        "s"
      ],
      [
        "æ¶ī",
        "åıĬ"
      ],
      [
        "u",
        "ce"
      ],
      [
        "ç",
        "¤"
      ],
      [
        "at",
        "ur"
      ],
      [
        "Ġt",
        "reat"
      ],
      [
        "Ġre",
        "le"
      ],
      [
        "sion",
        "ally"
      ],
      [
        "un",
        "ities"
      ],
      [
        "è®",
        "¡åĪ"
      ],
      [
        "ç»",
        "į"
      ],
      [
        "æ¸¯",
        "ä¸Ńå¤§"
      ],
      [
        "Ġpot",
        "ential"
      ],
      [
        "ä»ĭ",
        "ç»į"
      ],
      [
        "è®¡åĪ",
        "Ĵ"
      ],
      [
        "i",
        "x"
      ],
      [
        "Ġf",
        "it"
      ],
      [
        "ä½ł",
        "çİ°åľ¨"
      ],
      [
        "åĲ",
        "Ħ"
      ],
      [
        "Ġcom",
        "ing"
      ],
      [
        "Ġv",
        "alid"
      ],
      [
        "æµģ",
        "æ¨¡åŀĭçļĦ"
      ],
      [
        "Ġexpl",
        "ore"
      ],
      [
        "Ġmul",
        "timodal"
      ],
      [
        "Ġcomple",
        "x"
      ],
      [
        "åİ»",
        "è¿ĩ"
      ],
      [
        "Ġg",
        "row"
      ],
      [
        "ĠI",
        "ndustry"
      ],
      [
        "Ġof",
        "ten"
      ],
      [
        "é¢",
        "Ħ"
      ],
      [
        "Ġcollabor",
        "ation"
      ],
      [
        "Ġcontrib",
        "ution"
      ],
      [
        "æľĢè¿ĳ",
        "åľ¨"
      ],
      [
        "å®¶",
        "åħ¬åı¸"
      ],
      [
        "Ġtran",
        "sition"
      ],
      [
        "Ġcho",
        "ose"
      ],
      [
        "Most",
        "ly"
      ],
      [
        "cc",
        "a"
      ],
      [
        "b",
        "od"
      ],
      [
        "v",
        "ely"
      ],
      [
        "Ġre",
        "ward"
      ],
      [
        "ver",
        "s"
      ],
      [
        "Ġac",
        "tively"
      ],
      [
        "äºĨ",
        "ä»Ģä¹Ī"
      ],
      [
        "çī¹åĪ«",
        "æĺ¯"
      ],
      [
        "Ġreason",
        "ing"
      ],
      [
        "éľ",
        "Ģ"
      ],
      [
        "Ġphilosop",
        "hy"
      ],
      [
        "Ġd",
        "etail"
      ],
      [
        "Ġre",
        "t"
      ],
      [
        "ä½ł",
        "æĢİä¹Ī"
      ],
      [
        "ä»Ģä¹Ī",
        "æĹ¶åĢĻ"
      ],
      [
        "Ġinterest",
        "ing"
      ],
      [
        "Ġlead",
        "ing"
      ],
      [
        "Ġkeep",
        "s"
      ],
      [
        "Ġvalu",
        "able"
      ],
      [
        "¢",
        "«"
      ],
      [
        "è",
        "¢«"
      ],
      [
        "ä¹",
        "ħ"
      ],
      [
        "Ġl",
        "ed"
      ],
      [
        "å®",
        "¹"
      ],
      [
        "Ġac",
        "tive"
      ],
      [
        "Ġpl",
        "us"
      ],
      [
        "Ġfoundation",
        "al"
      ],
      [
        "Ġspec",
        "ial"
      ],
      [
        "éĻ",
        "¤"
      ],
      [
        "æ·±",
        "åº¦"
      ],
      [
        "Ġsom",
        "ething"
      ],
      [
        "åĪĽ",
        "æĸ°"
      ],
      [
        "I",
        "n"
      ],
      [
        "Q",
        "u"
      ],
      [
        "a",
        "ining"
      ],
      [
        "r",
        "u"
      ],
      [
        "en",
        "se"
      ],
      [
        "ä¹",
        "¦"
      ],
      [
        "ä½ł",
        "å¥½"
      ],
      [
        "è®",
        "¡"
      ],
      [
        "Ġcomp",
        "ute"
      ],
      [
        "è§",
        "ģ"
      ],
      [
        "Ġen",
        "able"
      ],
      [
        "Ġup",
        "d"
      ],
      [
        "Ġdirec",
        "tions"
      ],
      [
        "åĲĪ",
        "ä½ľ"
      ],
      [
        "Ġpers",
        "pec"
      ],
      [
        "Ġspecific",
        "ally"
      ],
      [
        "Ex",
        "pl"
      ],
      [
        "wh",
        "ere"
      ],
      [
        "Ġhyp",
        "hen"
      ],
      [
        "Ġdynam",
        "ics"
      ],
      [
        "Ġ",
        "'"
      ],
      [
        "Ġm",
        "ade"
      ],
      [
        "Ġf",
        "avorite"
      ],
      [
        "åį",
        "ķ"
      ],
      [
        "éĥ½",
        "å¾Ī"
      ],
      [
        "Ġpublish",
        "ing"
      ],
      [
        "çĽ®",
        "åīį"
      ],
      [
        "èģ",
        "Ĭ"
      ],
      [
        "å¹³è¡",
        "¡"
      ],
      [
        "bod",
        "ied"
      ],
      [
        "Ġf",
        "ine"
      ],
      [
        "Ġin",
        "v"
      ],
      [
        "Ġth",
        "ings"
      ],
      [
        "ow",
        "er"
      ],
      [
        "Ġl",
        "angu"
      ],
      [
        "ol",
        "le"
      ],
      [
        "çİ",
        "¯"
      ],
      [
        "Ġimpro",
        "ves"
      ],
      [
        "ä¸»è¦ģ",
        "æĺ¯"
      ],
      [
        "Ġexp",
        "ert"
      ],
      [
        "Ġgradu",
        "ating"
      ],
      [
        "å®",
        "Į"
      ],
      [
        "æĢĿ",
        "èĢĥ"
      ],
      [
        "å¾Ī",
        "å¤§"
      ],
      [
        "Ġtop",
        "ics"
      ],
      [
        "é¦Ļ",
        "æ¸¯"
      ],
      [
        "è¾",
        "ĥ"
      ],
      [
        "B",
        "uilding"
      ],
      [
        "l",
        "oc"
      ],
      [
        "Ġ",
        "3"
      ],
      [
        "re",
        "e"
      ],
      [
        "ï¼",
        "ļ"
      ],
      [
        "Ġw",
        "e"
      ],
      [
        "Ġc",
        "ame"
      ],
      [
        "Ġs",
        "m"
      ],
      [
        "Ġg",
        "round"
      ],
      [
        "Ġad",
        "d"
      ],
      [
        "ĠS",
        "ome"
      ],
      [
        "åĨĻ",
        "Zhihu"
      ],
      [
        "Pre",
        "tty"
      ],
      [
        "read",
        "y"
      ],
      [
        "ç¬",
        "Ķ"
      ],
      [
        "èĭ",
        "±"
      ],
      [
        "M",
        "aybe"
      ],
      [
        "n",
        "ce"
      ],
      [
        "ou",
        "nt"
      ],
      [
        "Ġb",
        "en"
      ],
      [
        "Ġthe",
        "ore"
      ],
      [
        "Ġthe",
        "ir"
      ],
      [
        "Ġcon",
        "sid"
      ],
      [
        "ä½łåľ¨",
        "åĵª"
      ],
      [
        "ee",
        "k"
      ],
      [
        "Ġprac",
        "ti"
      ],
      [
        "æĶ¶",
        "èİ·"
      ],
      [
        "Ġloo",
        "king"
      ],
      [
        "Ġengine",
        "ering"
      ],
      [
        "æĪĳæĺ¯",
        "æ±ªç¦ıè¿Ĳ"
      ],
      [
        "ç¬Ķ",
        "åĲį"
      ],
      [
        "èĭ±",
        "æĸĩ"
      ],
      [
        "z",
        "e"
      ],
      [
        "å¤",
        "©"
      ],
      [
        "qu",
        "ire"
      ],
      [
        "èµ",
        "·"
      ],
      [
        "Wor",
        "ked"
      ],
      [
        "Ġd",
        "om"
      ],
      [
        "ven",
        "ing"
      ],
      [
        "åĽ½",
        "åĨħ"
      ],
      [
        "æķĪ",
        "çİĩ"
      ],
      [
        "Ġnetwor",
        "k"
      ],
      [
        "Ġtas",
        "ks"
      ],
      [
        "Ġtreat",
        "ing"
      ],
      [
        "I",
        "mp"
      ],
      [
        "o",
        "nt"
      ],
      [
        "¦",
        "åı"
      ],
      [
        "Ġ",
        "+"
      ],
      [
        "Ġ",
        "è¿Ĳ"
      ],
      [
        "Ġs",
        "earch"
      ],
      [
        "MMLab",
        "çļĦ"
      ],
      [
        "Ġsh",
        "ow"
      ],
      [
        "ĠE",
        "ach"
      ],
      [
        "ili",
        "ties"
      ],
      [
        "Ġautonom",
        "ous"
      ],
      [
        "a",
        "ily"
      ],
      [
        "si",
        "ve"
      ],
      [
        "ç§ĳ",
        "çłĶ"
      ],
      [
        "ew",
        "h"
      ],
      [
        "our",
        "n"
      ],
      [
        "Ġstud",
        "ied"
      ],
      [
        "Ġj",
        "ourn"
      ],
      [
        "ä¸Ģ",
        "ä¸ª"
      ],
      [
        "rod",
        "uce"
      ],
      [
        "è·",
        "³"
      ],
      [
        "Ġem",
        "bodied"
      ],
      [
        "Ġcod",
        "ing"
      ],
      [
        "åĢ",
        "¼"
      ],
      [
        "ĠH",
        "e"
      ],
      [
        "nth",
        "e"
      ],
      [
        "Ġopport",
        "unities"
      ],
      [
        "ever",
        "al"
      ],
      [
        "Ġbrea",
        "k"
      ],
      [
        "å¢",
        "ĥ"
      ],
      [
        "éĻ¤",
        "äºĨ"
      ],
      [
        "s",
        "p"
      ],
      [
        "ç",
        "ĥ"
      ],
      [
        "Ġin",
        "form"
      ],
      [
        "èµĦ",
        "æºĲ"
      ],
      [
        "åº",
        "Ķ"
      ],
      [
        "Ġoff",
        "er"
      ],
      [
        "åĨħ",
        "å®¹"
      ],
      [
        "Ġenab",
        "ling"
      ],
      [
        "å»º",
        "è®®"
      ],
      [
        "L",
        "ong"
      ],
      [
        "Ġy",
        "et"
      ],
      [
        "Ġc",
        "olle"
      ],
      [
        "ent",
        "ly"
      ],
      [
        "Ġn",
        "am"
      ],
      [
        "Ġh",
        "ear"
      ],
      [
        "åľ¨",
        "çŁ¥ä¹İ"
      ],
      [
        "ĠM",
        "ost"
      ],
      [
        "çłĶç©¶",
        "æĸ¹åĲĳ"
      ],
      [
        "Ġpost",
        "s"
      ],
      [
        "ri",
        "tical"
      ],
      [
        "è¯",
        "Ĩ"
      ],
      [
        "Ġsy",
        "nthe"
      ],
      [
        "Ġsp",
        "ell"
      ],
      [
        "æī©æķ£æ¨¡åŀĭ",
        "åĲİè®Ńç»ĥ"
      ],
      [
        "èĤ¡ç¥¨",
        "æĬķèµĦ"
      ],
      [
        "åĩ",
        "Ĩ"
      ],
      [
        "çĲĨ",
        "è§£"
      ],
      [
        "ead",
        "ing"
      ],
      [
        "Ġposi",
        "tion"
      ],
      [
        "Ġpus",
        "hing"
      ],
      [
        "Ġreg",
        "ularly"
      ],
      [
        "Ġaff",
        "ili"
      ],
      [
        "Ġclar",
        "if"
      ],
      [
        "A",
        "d"
      ],
      [
        "M",
        "orning"
      ],
      [
        "Ĩ",
        "Ĵ"
      ],
      [
        "Ġc",
        "atch"
      ],
      [
        "Ġre",
        "m"
      ],
      [
        "le",
        "x"
      ],
      [
        "äº",
        "§"
      ],
      [
        "ind",
        "ustry"
      ],
      [
        "çĶŁ",
        "æ´»"
      ],
      [
        "Ġvi",
        "a"
      ],
      [
        "æĻ",
        "ļ"
      ],
      [
        "çĽ¸",
        "ä¿¡"
      ],
      [
        "Ġmo",
        "tiv"
      ],
      [
        "Ġmentor",
        "ship"
      ],
      [
        "Ġact",
        "ually"
      ],
      [
        "æ¯Ķ",
        "è¾ĥ"
      ],
      [
        "ç»ĵ",
        "åĲĪ"
      ],
      [
        "ewor",
        "k"
      ],
      [
        "Ġskill",
        "s"
      ],
      [
        "çİ¯",
        "å¢ĥ"
      ],
      [
        "L",
        "i"
      ],
      [
        "l",
        "and"
      ],
      [
        "è",
        "½"
      ],
      [
        "Ġre",
        "quire"
      ],
      [
        "it",
        "ely"
      ],
      [
        "om",
        "m"
      ],
      [
        "Ġl",
        "ot"
      ],
      [
        "åħ",
        "ħ"
      ],
      [
        "ç»",
        "Ħ"
      ],
      [
        "ç»",
        "Ļ"
      ],
      [
        "ĠTh",
        "en"
      ],
      [
        "urrent",
        "ly"
      ],
      [
        "Ġfundament",
        "al"
      ],
      [
        "Ġsom",
        "etimes"
      ],
      [
        "çĿ",
        "Ģ"
      ],
      [
        "åĹ",
        "¨"
      ],
      [
        "Ġret",
        "urn"
      ],
      [
        "H",
        "ello"
      ],
      [
        "d",
        "oc"
      ],
      [
        "u",
        "es"
      ],
      [
        "Ġd",
        "aily"
      ],
      [
        "Ġe",
        "qu"
      ],
      [
        "ĠN",
        "PO"
      ],
      [
        "ä½łçļĦ",
        "PhD"
      ],
      [
        "Ġgo",
        "al"
      ],
      [
        "è§",
        "¦"
      ],
      [
        "Ġpl",
        "ay"
      ],
      [
        "Ġcollabor",
        "ations"
      ],
      [
        "ç¡",
        "®"
      ],
      [
        "Ġprim",
        "ary"
      ],
      [
        "F",
        "ocus"
      ],
      [
        "in",
        "itely"
      ],
      [
        "Ġp",
        "hased"
      ],
      [
        "ä½ł",
        "æĢİä¹Īçľĭ"
      ],
      [
        "Ġresearch",
        "ing"
      ],
      [
        "æĺ¯",
        "æĢĿæĤ¥"
      ],
      [
        "ä»",
        "¬"
      ],
      [
        "ĠW",
        "e"
      ],
      [
        "Ġstud",
        "ies"
      ],
      [
        "Ġgo",
        "als"
      ],
      [
        "Ġte",
        "ach"
      ],
      [
        "Ġpubl",
        "ic"
      ],
      [
        "Ġwrit",
        "ten"
      ],
      [
        "ire",
        "ct"
      ],
      [
        "Ġadvisor",
        "s"
      ],
      [
        "è¿Ľ",
        "åħ¥"
      ],
      [
        "Ġappl",
        "ied"
      ],
      [
        "Ġsu",
        "pport"
      ],
      [
        "Ġenviron",
        "ments"
      ],
      [
        "Ġdiscus",
        "sions"
      ],
      [
        "åŃĹèĬĤ",
        "è·³"
      ],
      [
        "Ġrigor",
        "ous"
      ],
      [
        "Mul",
        "timedia"
      ],
      [
        "åŃĹèĬĤè·³",
        "åĬ¨"
      ],
      [
        "in",
        "u"
      ],
      [
        "Ġg",
        "ave"
      ],
      [
        "æĺ¯",
        "ä½ł"
      ],
      [
        "ĠP",
        "ublished"
      ],
      [
        "Ġcon",
        "ference"
      ],
      [
        "Ġsol",
        "ve"
      ],
      [
        "Ġide",
        "al"
      ],
      [
        "æĮ",
        "ĩ"
      ],
      [
        "åĬł",
        "éĢŁ"
      ],
      [
        "æİ¥",
        "è§¦"
      ],
      [
        "Ġperson",
        "al"
      ],
      [
        "i",
        "p"
      ],
      [
[...]
